{
  "version": "1.0",
  "truncation": null,
  "padding": null,
  "added_tokens": [
    {
      "id": 0,
      "content": "<|endoftext|>",
      "single_word": false,
      "lstrip": false,
      "rstrip": false,
      "normalized": false,
      "special": true
    },
    {
      "id": 1,
      "content": "<|padding|>",
      "single_word": false,
      "lstrip": false,
      "rstrip": false,
      "normalized": false,
      "special": true
    }
  ],
  "normalizer": null,
  "pre_tokenizer": {
    "type": "ByteLevel",
    "add_prefix_space": false,
    "trim_offsets": true,
    "use_regex": true
  },
  "post_processor": null,
  "decoder": {
    "type": "ByteLevel",
    "add_prefix_space": true,
    "trim_offsets": true,
    "use_regex": true
  },
  "model": {
    "type": "BPE",
    "dropout": null,
    "unk_token": null,
    "continuing_subword_prefix": null,
    "end_of_word_suffix": null,
    "fuse_unk": false,
    "byte_fallback": false,
    "ignore_merges": false,
    "vocab": {
      "<|endoftext|>": 0,
      "<|padding|>": 1,
      "!": 2,
      "\"": 3,
      "#": 4,
      "$": 5,
      "%": 6,
      "&": 7,
      "'": 8,
      "(": 9,
      ")": 10,
      "*": 11,
      "+": 12,
      ",": 13,
      "-": 14,
      ".": 15,
      "/": 16,
      "0": 17,
      "1": 18,
      "2": 19,
      "3": 20,
      "4": 21,
      "5": 22,
      "6": 23,
      "7": 24,
      "8": 25,
      "9": 26,
      ":": 27,
      ";": 28,
      "<": 29,
      "=": 30,
      ">": 31,
      "?": 32,
      "@": 33,
      "A": 34,
      "B": 35,
      "C": 36,
      "D": 37,
      "E": 38,
      "F": 39,
      "G": 40,
      "H": 41,
      "I": 42,
      "J": 43,
      "K": 44,
      "L": 45,
      "M": 46,
      "N": 47,
      "O": 48,
      "P": 49,
      "Q": 50,
      "R": 51,
      "S": 52,
      "T": 53,
      "U": 54,
      "V": 55,
      "W": 56,
      "X": 57,
      "Y": 58,
      "Z": 59,
      "[": 60,
      "\\": 61,
      "]": 62,
      "^": 63,
      "_": 64,
      "`": 65,
      "a": 66,
      "b": 67,
      "c": 68,
      "d": 69,
      "e": 70,
      "f": 71,
      "g": 72,
      "h": 73,
      "i": 74,
      "j": 75,
      "k": 76,
      "l": 77,
      "m": 78,
      "n": 79,
      "o": 80,
      "p": 81,
      "q": 82,
      "r": 83,
      "s": 84,
      "t": 85,
      "u": 86,
      "v": 87,
      "w": 88,
      "x": 89,
      "y": 90,
      "z": 91,
      "{": 92,
      "|": 93,
      "}": 94,
      "~": 95,
      "¢": 96,
      "â": 97,
      "Ċ": 98,
      "č": 99,
      "Ġ": 100,
      "Ģ": 101,
      "čĊ": 102,
      "on": 103,
      "in": 104,
      "ti": 105,
      "er": 106,
      "Ġt": 107,
      "Ġa": 108,
      "re": 109,
      "al": 110,
      "en": 111,
      "Ġc": 112,
      "es": 113,
      "Ġs": 114,
      "Ġth": 115,
      "or": 116,
      "tion": 117,
      "an": 118,
      "is": 119,
      "Ġp": 120,
      "ic": 121,
      "at": 122,
      "ed": 123,
      "ar": 124,
      "it": 125,
      "Ġthe": 126,
      "ing": 127,
      "Ġd": 128,
      "Ġm": 129,
      "Ġf": 130,
      "Ġo": 131,
      "ro": 132,
      "Ġin": 133,
      "Ġw": 134,
      "Ġb": 135,
      "le": 136,
      "ation": 137,
      "ent": 138,
      "ec": 139,
      "nd": 140,
      "Ġre": 141,
      "om": 142,
      "st": 143,
      "Ġof": 144,
      "ou": 145,
      "Ġe": 146,
      "ra": 147,
      "Ġh": 148,
      "ol": 149,
      "as": 150,
      "ly": 151,
      "ce": 152,
      "Ġand": 153,
      "Ġto": 154,
      "ve": 155,
      "Ġl": 156,
      "th": 157,
      "Ġcon": 158,
      "Ġn": 159,
      "il": 160,
      "ul": 161,
      "si": 162,
      "##": 163,
      "ac": 164,
      "ment": 165,
      "ĠC": 166,
      "ur": 167,
      "im": 168,
      "**": 169,
      "et": 170,
      "ig": 171,
      "if": 172,
      "tic": 173,
      "ĠS": 174,
      "ĠT": 175,
      "id": 176,
      "em": 177,
      "ter": 178,
      "ity": 179,
      "Ġg": 180,
      "ver": 181,
      "el": 182,
      "ow": 183,
      "Ġst": 184,
      "ical": 185,
      "ĠA": 186,
      "ut": 187,
      "us": 188,
      "Ġ(": 189,
      "Ġpro": 190,
      "ts": 191,
      "he": 192,
      "Ġfor": 193,
      "ri": 194,
      "uc": 195,
      "Ġv": 196,
      "Ġcom": 197,
      "ate": 198,
      "res": 199,
      "ab": 200,
      "am": 201,
      "ist": 202,
      "ĠP": 203,
      "un": 204,
      "Ġ\"": 205,
      "ir": 206,
      "qu": 207,
      "od": 208,
      "ĠčĊ": 209,
      "ot": 210,
      "ge": 211,
      "Ġ1": 212,
      "Ġas": 213,
      "og": 214,
      "ith": 215,
      "ĠM": 216,
      "ess": 217,
      "ĠI": 218,
      "Ġwh": 219,
      "ain": 220,
      "Ġex": 221,
      "op": 222,
      "ad": 223,
      "Ġis": 224,
      "ch": 225,
      "pp": 226,
      "Ġwith": 227,
      "###": 228,
      "ure": 229,
      "ers": 230,
      "tive": 231,
      "te": 232,
      "os": 233,
      "'s": 234,
      "oc": 235,
      "ĠH": 236,
      "Ġon": 237,
      "Ġsp": 238,
      "Ġthat": 239,
      "Ġcomp": 240,
      "Ġbe": 241,
      "Ġde": 242,
      "and": 243,
      "ĠE": 244,
      "um": 245,
      "ence": 246,
      "ĠB": 247,
      "ations": 248,
      "ore": 249,
      "Ġac": 250,
      "Ġan": 251,
      "ĠR": 252,
      "Ġch": 253,
      "end": 254,
      "ay": 255,
      "ap": 256,
      "ific": 257,
      "Ġr": 258,
      "Ġal": 259,
      "ial": 260,
      "ĠD": 261,
      "di": 262,
      "igh": 263,
      "iz": 264,
      "est": 265,
      "Ġor": 266,
      "pl": 267,
      "ĠL": 268,
      "ĠThe": 269,
      "ĠF": 270,
      "ff": 271,
      "ary": 272,
      "gh": 273,
      "ual": 274,
      "rom": 275,
      "se": 276,
      "ke": 277,
      "Ġ2": 278,
      "ĠN": 279,
      "Ġsu": 280,
      "sion": 281,
      "Ġ=": 282,
      "fer": 283,
      "per": 284,
      "ies": 285,
      "tical": 286,
      "ant": 287,
      "Ġsy": 288,
      "ance": 289,
      "tions": 290,
      "our": 291,
      "Ġit": 292,
      "xt": 293,
      "ct": 294,
      "und": 295,
      "..": 296,
      "orm": 297,
      "ech": 298,
      "ine": 299,
      "ĠG": 300,
      "ere": 301,
      "Ġspec": 302,
      "Ġcont": 303,
      "Ġim": 304,
      "enti": 305,
      "Ġfrom": 306,
      "ork": 307,
      "ĠW": 308,
      "Ġby": 309,
      "ys": 310,
      "ion": 311,
      "ath": 312,
      "ew": 313,
      "olog": 314,
      "Ġapp": 315,
      "tim": 316,
      "ld": 317,
      "ran": 318,
      "Ġad": 319,
      "Ġle": 320,
      "Ġun": 321,
      "Ġ-": 322,
      "ous": 323,
      "Ġwas": 324,
      "ism": 325,
      "ip": 326,
      "vid": 327,
      "lu": 328,
      "Ġare": 329,
      "ach": 330,
      "ire": 331,
      "text": 332,
      "all": 333,
      "ution": 334,
      "Ġse": 335,
      "ect": 336,
      "Ġpre": 337,
      "tern": 338,
      "ated": 339,
      "act": 340,
      "ult": 341,
      "age": 342,
      "ign": 343,
      "Ġpar": 344,
      "ruc": 345,
      "ther": 346,
      "ost": 347,
      "The": 348,
      "ory": 349,
      "ph": 350,
      "Ġsh": 351,
      "enc": 352,
      "ag": 353,
      "ural": 354,
      "Ġnot": 355,
      "00": 356,
      "Ġab": 357,
      "Ġy": 358,
      "Ġbut": 359,
      "ish": 360,
      "ple": 361,
      "Ġme": 362,
      "rou": 363,
      "ort": 364,
      "out": 365,
      "ates": 366,
      "stem": 367,
      "ĠTh": 368,
      "Ġli": 369,
      "Ġres": 370,
      "ust": 371,
      "form": 372,
      "vel": 373,
      "iffer": 374,
      "ari": 375,
      "able": 376,
      "ard": 377,
      "Ġat": 378,
      "ak": 379,
      "ast": 380,
      "ven": 381,
      "Ġper": 382,
      "ĠIn": 383,
      "ĠU": 384,
      "ĠCon": 385,
      "ility": 386,
      "ome": 387,
      "Ġne": 388,
      "Ġen": 389,
      "ors": 390,
      ":**": 391,
      "Ġcan": 392,
      "nt": 393,
      "Ġinc": 394,
      "Ġ+": 395,
      "are": 396,
      "ram": 397,
      "av": 398,
      "Ġsystem": 399,
      "de": 400,
      "ble": 401,
      "ese": 402,
      "ric": 403,
      "Ġcl": 404,
      "ould": 405,
      "rain": 406,
      "Ġ19": 407,
      "Ġrel": 408,
      "ative": 409,
      "ang": 410,
      "iti": 411,
      "Ġdiffer": 412,
      "Ġdis": 413,
      "cess": 414,
      "ich": 415,
      "Ġmore": 416,
      "ational": 417,
      "rac": 418,
      "ss": 419,
      "ments": 420,
      "Ġthis": 421,
      "Ġar": 422,
      "ong": 423,
      "Ġk": 424,
      "**:": 425,
      "Ġus": 426,
      "ruct": 427,
      "duc": 428,
      "vol": 429,
      "ĠO": 430,
      "ell": 431,
      "Ġhe": 432,
      "Ġ3": 433,
      "tional": 434,
      "echan": 435,
      "ue": 436,
      "erm": 437,
      "ia": 438,
      "ile": 439,
      "Ġrequ": 440,
      "Ġinter": 441,
      "ill": 442,
      "ey": 443,
      "ight": 444,
      "rough": 445,
      "Ġpol": 446,
      "Ġcomple": 447,
      "Ġqu": 448,
      "Ġspecific": 449,
      "ater": 450,
      "yp": 451,
      "rans": 452,
      "ail": 453,
      "ave": 454,
      "iv": 455,
      "ear": 456,
      "Ġeff": 457,
      "Ġimp": 458,
      "Ġlike": 459,
      "Ġtra": 460,
      "Ġconf": 461,
      "Ġpl": 462,
      "Ġint": 463,
      "Ġj": 464,
      "erv": 465,
      "now": 466,
      "lic": 467,
      "Ġtheir": 468,
      "Ġco": 469,
      "onom": 470,
      "ĠK": 471,
      "Ġreg": 472,
      "Ġvs": 473,
      "fic": 474,
      "ular": 475,
      "etw": 476,
      "tit": 477,
      "Ġph": 478,
      "yn": 479,
      "Ġsc": 480,
      "aus": 481,
      "ress": 482,
      "...": 483,
      "Ġ4": 484,
      "Ġthan": 485,
      "ery": 486,
      "Ġthrough": 487,
      "ound": 488,
      "ological": 489,
      "ord": 490,
      "Ġcons": 491,
      "Ġrec": 492,
      "thes": 493,
      "of": 494,
      "Ġwhich": 495,
      "Ġpo": 496,
      "tain": 497,
      "ĠCh": 498,
      "Ġem": 499,
      "ĠSt": 500,
      "Ġcomm": 501,
      "ally": 502,
      "Ġbec": 503,
      "Ġass": 504,
      "Ġund": 505,
      "ase": 506,
      "Ġmod": 507,
      "ame": 508,
      "ty": 509,
      "Qu": 510,
      "Ġappro": 511,
      "ces": 512,
      "ĠV": 513,
      "ents": 514,
      "Ġcre": 515,
      "thesis": 516,
      "Ġrep": 517,
      "Ġdist": 518,
      "dic": 519,
      "Ġabout": 520,
      "ĠThis": 521,
      "low": 522,
      "echanism": 523,
      "ass": 524,
      "imit": 525,
      "ry": 526,
      "ub": 527,
      "ction": 528,
      "Ġinf": 529,
      "alys": 530,
      "Ġ5": 531,
      "Ġhis": 532,
      "Ġover": 533,
      "ian": 534,
      "Ġgen": 535,
      "Ġconst": 536,
      "alysis": 537,
      "pt": 538,
      "hip": 539,
      "Ġhave": 540,
      "oth": 541,
      "rib": 542,
      "Ġunder": 543,
      "Ġtrans": 544,
      "Ġro": 545,
      "ĠJ": 546,
      "ulation": 547,
      "velop": 548,
      "over": 549,
      "ization": 550,
      "Ġtim": 551,
      "tiv": 552,
      "ern": 553,
      "ack": 554,
      "led": 555,
      "pec": 556,
      "pon": 557,
      "Ġsign": 558,
      "ĠRe": 559,
      "een": 560,
      "ures": 561,
      "Ġdifferent": 562,
      "Ġpr": 563,
      "ber": 564,
      "lish": 565,
      "istor": 566,
      "Ġman": 567,
      "ud": 568,
      "ood": 569,
      "ability": 570,
      "ace": 571,
      "por": 572,
      "Ġdet": 573,
      "ten": 574,
      "Ġsuc": 575,
      "val": 576,
      "ating": 577,
      "etween": 578,
      "Ġwork": 579,
      "Ġmo": 580,
      "pend": 581,
      "Ġbetween": 582,
      "ultural": 583,
      "Ġform": 584,
      "ark": 585,
      "ding": 586,
      "raph": 587,
      "Query": 588,
      "Ġdec": 589,
      "aw": 590,
      "Ġcomplex": 591,
      "onomic": 592,
      "ges": 593,
      ".<": 594,
      "Ġits": 595,
      "Ġdes": 596,
      "Ġstruct": 597,
      "inal": 598,
      "Ġdevelop": 599,
      "les": 600,
      "Ġexp": 601,
      "sition": 602,
      "|>": 603,
      "endof": 604,
      "endoftext": 605,
      "ĠAn": 606,
      "ross": 607,
      "formation": 608,
      "ology": 609,
      "Ġpat": 610,
      "istorical": 611,
      "ite": 612,
      "ulti": 613,
      "ework": 614,
      "der": 615,
      "Ġ**": 616,
      "Ġwe": 617,
      "ramework": 618,
      "up": 619,
      "ateg": 620,
      "Ġec": 621,
      "Ġneed": 622,
      ".<|": 623,
      "Ġfact": 624,
      "ities": 625,
      "Ġmechanism": 626,
      "ef": 627,
      "ograph": 628,
      "Ġapproach": 629,
      "Ġthey": 630,
      "ens": 631,
      "Ġdi": 632,
      "Ġthese": 633,
      "ential": 634,
      "Ġvari": 635,
      "sive": 636,
      "Ġother": 637,
      "uring": 638,
      "echn": 639,
      "ĠCom": 640,
      "ount": 641,
      "Ġwould": 642,
      "Ġstr": 643,
      "Ġag": 644,
      "Ġwere": 645,
      "Ġ0": 646,
      "arch": 647,
      "par": 648,
      "Ġleg": 649,
      "ree": 650,
      "'t": 651,
      "ision": 652,
      "Ġpattern": 653,
      "Ġma": 654,
      "Ġele": 655,
      "rol": 656,
      "Ġcol": 657,
      "Ġwhen": 658,
      "Ġrequire": 659,
      "ather": 660,
      "mental": 661,
      "Ġtyp": 662,
      "ati": 663,
      "Ġwhile": 664,
      "Ġsub": 665,
      "Ġrem": 666,
      "Ġhas": 667,
      "Ġlimit": 668,
      "itical": 669,
      "ection": 670,
      "ious": 671,
      "ized": 672,
      "Ġall": 673,
      "ased": 674,
      "ically": 675,
      "Ġcent": 676,
      "vers": 677,
      "one": 678,
      "Ġconstrain": 679,
      "ide": 680,
      "Ġ20": 681,
      "Ġsim": 682,
      "Ġout": 683,
      "Ġcap": 684,
      "Ġdef": 685,
      "ower": 686,
      "thod": 687,
      "Ġra": 688,
      "Key": 689,
      "ght": 690,
      "Ġprovid": 691,
      "ration": 692,
      "so": 693,
      "eral": 694,
      "Ġprocess": 695,
      "Ġsignific": 696,
      "Ġsome": 697,
      "ency": 698,
      "Ġ6": 699,
      "ever": 700,
      "ced": 701,
      "Ġhigh": 702,
      "ond": 703,
      "ysical": 704,
      "reat": 705,
      "ose": 706,
      "ata": 707,
      "Ġob": 708,
      "istic": 709,
      "volution": 710,
      "Ġeffec": 711,
      "ren": 712,
      "ans": 713,
      "nowled": 714,
      "row": 715,
      "king": 716,
      "Ġpers": 717,
      "erg": 718,
      "atic": 719,
      "rit": 720,
      "ks": 721,
      "essment": 722,
      "Ġsoc": 723,
      "Ġacc": 724,
      "Ġdo": 725,
      "ĠWh": 726,
      "ynthesis": 727,
      ").": 728,
      "Ġyou": 729,
      "Ġpe": 730,
      "ice": 731,
      "Ġpartic": 732,
      "19": 733,
      "irect": 734,
      "ablish": 735,
      "li": 736,
      "ality": 737,
      "til": 738,
      "Ġpres": 739,
      "Ġinclu": 740,
      "inc": 741,
      "Ġdem": 742,
      "titution": 743,
      "ature": 744,
      "Ġmain": 745,
      "Ġwhere": 746,
      "Ġframework": 747,
      "ves": 748,
      "empor": 749,
      "ie": 750,
      "rop": 751,
      "Ġcor": 752,
      "Ġsupp": 753,
      "ons": 754,
      "irst": 755,
      "Ġins": 756,
      "ob": 757,
      "ting": 758,
      "ise": 759,
      "Ġanalysis": 760,
      "Ġalso": 761,
      "ved": 762,
      "ditional": 763,
      "),": 764,
      "ains": 765,
      "ici": 766,
      "Ġsignificant": 767,
      "ib": 768,
      "Ġmay": 769,
      "Ġrepres": 770,
      "establish": 771,
      "ption": 772,
      "owever": 773,
      "Ġsystems": 774,
      "ification": 775,
      "Ġlikely": 776,
      "arg": 777,
      "omes": 778,
      "ics": 779,
      "uth": 780,
      "ior": 781,
      "Ġfun": 782,
      "Ġval": 783,
      "ays": 784,
      "Ġcontext": 785,
      "ĠSynthesis": 786,
      "gan": 787,
      "ause": 788,
      "ences": 789,
      "urre": 790,
      "idence": 791,
      "In": 792,
      "Ġdata": 793,
      "arly": 794,
      "Ġpop": 795,
      "Ġprac": 796,
      "ann": 797,
      "Ġhad": 798,
      "Ġmed": 799,
      "pre": 800,
      "sible": 801,
      "Ġam": 802,
      "Ġboth": 803,
      "nowledge": 804,
      "Ġcontrol": 805,
      "Th": 806,
      "Ġinto": 807,
      "Ġref": 808,
      "Ġmethod": 809,
      "ron": 810,
      "overn": 811,
      "Ġtechn": 812,
      "Ġsur": 813,
      "vidence": 814,
      "its": 815,
      "allen": 816,
      "Ġver": 817,
      "Ġsug": 818,
      "ears": 819,
      "Ġone": 820,
      "ographic": 821,
      "mer": 822,
      "Ġoper": 823,
      "estion": 824,
      "ange": 825,
      "Ġfactors": 826,
      "iod": 827,
      "Ġinflu": 828,
      "ni": 829,
      "ser": 830,
      "vidual": 831,
      "eed": 832,
      "Ġrelations": 833,
      "als": 834,
      "ires": 835,
      "ertain": 836,
      "ted": 837,
      "ties": 838,
      "blem": 839,
      "Ġmulti": 840,
      "ĠPro": 841,
      "Ġestablish": 842,
      "Ġpolitical": 843,
      "ind": 844,
      "Ġacross": 845,
      "titutional": 846,
      "ually": 847,
      "old": 848,
      "Ġop": 849,
      "Ġrespon": 850,
      "cc": 851,
      "Ġproduc": 852,
      "Ġrather": 853,
      "Ġduring": 854,
      "Ġact": 855,
      "Ġinsi": 856,
      "Ġeconomic": 857,
      "Ġprot": 858,
      "Ġno": 859,
      "wo": 860,
      "Ġpatterns": 861,
      "Ġhow": 862,
      "eg": 863,
      "ied": 864,
      "own": 865,
      "Ġret": 866,
      "aking": 867,
      "ination": 868,
      "ru": 869,
      "Ġexpl": 870,
      "Ġlaw": 871,
      "ral": 872,
      "Ġmon": 873,
      "Ġconfidence": 874,
      "elf": 875,
      "Ġperiod": 876,
      "Ġmet": 877,
      "ov": 878,
      "Ġstrateg": 879,
      "Ġmark": 880,
      "lec": 881,
      "med": 882,
      "Ġ18": 883,
      "iron": 884,
      "Ġsuch": 885,
      "ep": 886,
      "Ġconc": 887,
      "road": 888,
      "Ġinvol": 889,
      "Ġthem": 890,
      "ason": 891,
      "Ġconstraints": 892,
      "Ġterm": 893,
      "Ġmost": 894,
      "Ġmechanisms": 895,
      "Ġstructure": 896,
      "Ġfund": 897,
      "ward": 898,
      "ues": 899,
      "Ġtime": 900,
      "sw": 901,
      "teg": 902,
      "ful": 903,
      "Ġwho": 904,
      "Ġte": 905,
      "Ġrelationship": 906,
      "hysical": 907,
      "oun": 908,
      "ness": 909,
      "ople": 910,
      "Ġquestion": 911,
      "Ġdevelopment": 912,
      "Ġcultural": 913,
      "Ġbeen": 914,
      "oph": 915,
      "ĠNo": 916,
      "Ġfirst": 917,
      "Ġexper": 918,
      "ize": 919,
      "roup": 920,
      "ars": 921,
      "ands": 922,
      "Ġsec": 923,
      "Ġatt": 924,
      "ditions": 925,
      "Ġpot": 926,
      "urrent": 927,
      "ild": 928,
      "lear": 929,
      "ublic": 930,
      "ource": 931,
      "Ġincre": 932,
      "ases": 933,
      "ĠEn": 934,
      "ilit": 935,
      "anc": 936,
      "ough": 937,
      "ings": 938,
      "Ġindi": 939,
      "min": 940,
      "ĠHigh": 941,
      "oy": 942,
      "Ġsocial": 943,
      "Ġinsight": 944,
      "int": 945,
      "Ġsyn": 946,
      "Ġregion": 947,
      "Ġchallen": 948,
      "Ġbeh": 949,
      "Ġadv": 950,
      "ages": 951,
      "Ġgovern": 952,
      "ok": 953,
      "pecific": 954,
      "Ġ~": 955,
      "swer": 956,
      "stand": 957,
      "Ġauth": 958,
      "Ġmem": 959,
      "Ġext": 960,
      "ital": 961,
      "Ġdoc": 962,
      "eck": 963,
      "Ġcontin": 964,
      "sider": 965,
      "Ġproblem": 966,
      "Ġdepend": 967,
      "ĠContext": 968,
      "ĠY": 969,
      "Ġhistorical": 970,
      "round": 971,
      "Ġdirect": 972,
      "Ġid": 973,
      "Ġpolic": 974,
      "Ġunc": 975,
      "ury": 976,
      "Ġloc": 977,
      "alth": 978,
      "Ġchar": 979,
      "Wh": 980,
      "ĠInd": 981,
      "Ġpower": 982,
      "Ġparticular": 983,
      "ogical": 984,
      "tis": 985,
      "fter": 986,
      "Ġstate": 987,
      "acter": 988,
      "Ġmodel": 989,
      "jor": 990,
      "viron": 991,
      "cept": 992,
      "Ġnew": 993,
      "uman": 994,
      "Ġcompar": 995,
      "eline": 996,
      "Ġpress": 997,
      "Ġnum": 998,
      "ĠAl": 999,
      "Ġchang": 1000,
      "Ġindividual": 1001,
      "Ġwithout": 1002,
      "ily": 1003,
      "ax": 1004,
      "atory": 1005,
      "Ġ7": 1006,
      "Ġserv": 1007,
      "Ġstand": 1008,
      "Ġpeople": 1009,
      "Ġfound": 1010,
      "Ġbl": 1011,
      "iet": 1012,
      "20": 1013,
      "fication": 1014,
      "Ġwhat": 1015,
      "Ġproper": 1016,
      "Ġdom": 1017,
      "000": 1018,
      "Ġpath": 1019,
      "ĠUn": 1020,
      "Ġdisc": 1021,
      "Ġlegal": 1022,
      "Ġdetail": 1023,
      "Ġdefin": 1024,
      "ute": 1025,
      "ins": 1026,
      "Ġmeas": 1027,
      "ale": 1028,
      "ade": 1029,
      "ression": 1030,
      "udi": 1031,
      "Ġinde": 1032,
      "Ġbi": 1033,
      "ists": 1034,
      "mentation": 1035,
      "Ġcommun": 1036,
      "ants": 1037,
      "etic": 1038,
      "Ġprim": 1039,
      "eographic": 1040,
      "Ġexperi": 1041,
      "ĠIt": 1042,
      "Ġmaintain": 1043,
      "ĠHe": 1044,
      "Ġocc": 1045,
      "ritical": 1046,
      "Ġvi": 1047,
      "orld": 1048,
      "Ġidenti": 1049,
      "Ġinteg": 1050,
      "Ġgroup": 1051,
      "Ġbroad": 1052,
      "rie": 1053,
      "Ġconsider": 1054,
      "igious": 1055,
      "Ġevolution": 1056,
      "Ġmat": 1057,
      "Ġcould": 1058,
      "app": 1059,
      "ilitary": 1060,
      "ines": 1061,
      "ĠPar": 1062,
      "Ġprinc": 1063,
      "Ġwithin": 1064,
      "Ġcaus": 1065,
      "Ġequ": 1066,
      "Ġbre": 1067,
      "Ġbehav": 1068,
      "ples": 1069,
      "Ġiss": 1070,
      "sy": 1071,
      "Ġrequires": 1072,
      "Ġassessment": 1073,
      "Ġfunda": 1074,
      "Ġjust": 1075,
      "str": 1076,
      "Ġbecause": 1077,
      "ets": 1078,
      "Ġav": 1079,
      "lation": 1080,
      "ĠAnalysis": 1081,
      "ension": 1082,
      "Ġorgan": 1083,
      "ject": 1084,
      "Ġcount": 1085,
      "Ġevidence": 1086,
      "Ġyour": 1087,
      "Ġyears": 1088,
      "ving": 1089,
      "tation": 1090,
      "Ġunderstand": 1091,
      "Ġdistin": 1092,
      "Ġsch": 1093,
      "rim": 1094,
      "ossible": 1095,
      "aim": 1096,
      "meric": 1097,
      "jec": 1098,
      "ĠAr": 1099,
      "Ġcar": 1100,
      "Ġonly": 1101,
      "eld": 1102,
      "Ġtwo": 1103,
      "ĠBut": 1104,
      "lect": 1105,
      "Ġdoes": 1106,
      "ources": 1107,
      "tial": 1108,
      "rieval": 1109,
      "wn": 1110,
      "Ġfl": 1111,
      "Ġsm": 1112,
      "Ġprog": 1113,
      "Ġused": 1114,
      "au": 1115,
      "ogni": 1116,
      "emporal": 1117,
      "Ġlong": 1118,
      "arm": 1119,
      "Ġlead": 1120,
      "angu": 1121,
      "ared": 1122,
      "Ġsugges": 1123,
      "plic": 1124,
      "Ġaff": 1125,
      "Ġfe": 1126,
      "Ġgener": 1127,
      "Ġuse": 1128,
      "Ġexist": 1129,
      "This": 1130,
      "Ġmajor": 1131,
      "ning": 1132,
      "nown": 1133,
      "ean": 1134,
      "ci": 1135,
      "Ġsuggests": 1136,
      "atural": 1137,
      "Con": 1138,
      "Ġmin": 1139,
      "ĠAss": 1140,
      "Ġinfluence": 1141,
      "ĠEx": 1142,
      "Ġsol": 1143,
      "ters": 1144,
      "acy": 1145,
      "Ġoften": 1146,
      "Ġrepresent": 1147,
      "Ġsupport": 1148,
      "irc": 1149,
      "urop": 1150,
      "ffici": 1151,
      "Ġsym": 1152,
      "Ġenviron": 1153,
      "Ġed": 1154,
      "ug": 1155,
      "ergy": 1156,
      "Ġprec": 1157,
      "Ġcoast": 1158,
      "Ġgrow": 1159,
      "Ġauthor": 1160,
      "Ġperson": 1161,
      "Ġif": 1162,
      "Ġpart": 1163,
      "Ġincluding": 1164,
      "Ġris": 1165,
      "Ġconn": 1166,
      "Ġsever": 1167,
      "vent": 1168,
      "Ġgra": 1169,
      "atical": 1170,
      "osition": 1171,
      "Ġmultiple": 1172,
      "ix": 1173,
      "ĠCl": 1174,
      "Ġsuccess": 1175,
      "ife": 1176,
      "Ġthere": 1177,
      "Ġer": 1178,
      "Ġmodern": 1179,
      "Ġchanges": 1180,
      "rative": 1181,
      "search": 1182,
      "bility": 1183,
      "ris": 1184,
      "Ġlevel": 1185,
      "Ġ8": 1186,
      "ocus": 1187,
      "Ġresearch": 1188,
      "Ġsynthesis": 1189,
      "ission": 1190,
      "land": 1191,
      "agn": 1192,
      "Ġcost": 1193,
      "iter": 1194,
      "Ġeach": 1195,
      "Ġconditions": 1196,
      "Ġpri": 1197,
      "Ġpolicy": 1198,
      "Ġafter": 1199,
      "ited": 1200,
      "Ġsame": 1201,
      "Ġintern": 1202,
      "ĠAmeric": 1203,
      "ition": 1204,
      "Ġbeing": 1205,
      "Ġke": 1206,
      "Ġfol": 1207,
      "Ġtheory": 1208,
      "aries": 1209,
      "Ġcal": 1210,
      "Ġtr": 1211,
      "ols": 1212,
      "Ġclaim": 1213,
      "Ġso": 1214,
      "Ġposition": 1215,
      "rast": 1216,
      "Ġ201": 1217,
      "Ġexam": 1218,
      "ĠSh": 1219,
      "Ġ*": 1220,
      "Ġinformation": 1221,
      "Ġinst": 1222,
      "vement": 1223,
      "Ġbas": 1224,
      "Ġdesign": 1225,
      "Ġher": 1226,
      "Ġcharacter": 1227,
      "Ġind": 1228,
      "way": 1229,
      "Ġbehavior": 1230,
      "Ġperform": 1231,
      "clu": 1232,
      "Ġshif": 1233,
      "Ġset": 1234,
      "con": 1235,
      "ex": 1236,
      "Ġfam": 1237,
      "Ġcorre": 1238,
      "Ġfin": 1239,
      "Ġadap": 1240,
      "Ġter": 1241,
      "af": 1242,
      "ories": 1243,
      "Ġestablished": 1244,
      "Physical": 1245,
      "Ġwell": 1246,
      "olic": 1247,
      "minist": 1248,
      "Ġstandard": 1249,
      "etter": 1250,
      "Ġreduc": 1251,
      "ive": 1252,
      "Ġoutc": 1253,
      "Ġbu": 1254,
      "Ġcontinu": 1255,
      "ier": 1256,
      "ĠNot": 1257,
      "dition": 1258,
      "tivity": 1259,
      "Ġpredic": 1260,
      "Ġcoastal": 1261,
      "Ġhuman": 1262,
      "ape": 1263,
      "ructure": 1264,
      "Ġmight": 1265,
      "iqu": 1266,
      "athem": 1267,
      "Ġdocu": 1268,
      "Ġtypically": 1269,
      "omp": 1270,
      "Ġ{": 1271,
      "sing": 1272,
      "Ġcell": 1273,
      "Ġshow": 1274,
      "sych": 1275,
      "Ġmean": 1276,
      "Ġbroader": 1277,
      "sid": 1278,
      "Ġup": 1279,
      "ights": 1280,
      "Ġprof": 1281,
      "ĠRes": 1282,
      "ĠEurop": 1283,
      "Ġreal": 1284,
      "Ġmany": 1285,
      "Ġelect": 1286,
      "Ġeffects": 1287,
      "Ġagain": 1288,
      "Ġben": 1289,
      "eli": 1290,
      "Ġwar": 1291,
      "'re": 1292,
      "Ġapplic": 1293,
      "ynam": 1294,
      "Ġknowledge": 1295,
      "ĠHistorical": 1296,
      "Ġes": 1297,
      "oss": 1298,
      "bers": 1299,
      "omen": 1300,
      "ox": 1301,
      "ribution": 1302,
      "Ġparticularly": 1303,
      "Ġeven": 1304,
      "Ġown": 1305,
      "Ġpopulation": 1306,
      "ected": 1307,
      "mun": 1308,
      "ately": 1309,
      "Ġprovide": 1310,
      "Ġpressure": 1311,
      "Ġorig": 1312,
      "Ġreligious": 1313,
      "medi": 1314,
      "Ġmilitary": 1315,
      "serv": 1316,
      "Ġspecial": 1317,
      "Ġchange": 1318,
      "Ġearly": 1319,
      "Ġ200": 1320,
      "Ġany": 1321,
      "ane": 1322,
      "ensive": 1323,
      "Ġimport": 1324,
      "me": 1325,
      "Ġend": 1326,
      "Ġfollow": 1327,
      "antic": 1328,
      "ĠIm": 1329,
      "ĠPre": 1330,
      "Ġinterpre": 1331,
      "air": 1332,
      "Ġarch": 1333,
      "Ġgl": 1334,
      "urn": 1335,
      "ecess": 1336,
      "for": 1337,
      "not": 1338,
      "arge": 1339,
      "Ġallow": 1340,
      "Ġopp": 1341,
      "ĠUser": 1342,
      "Ġtraditional": 1343,
      "Ġcomplexity": 1344,
      "Ġtreat": 1345,
      "Ġfundamental": 1346,
      "Ġlangu": 1347,
      "tal": 1348,
      "ined": 1349,
      "read": 1350,
      "ĠAd": 1351,
      "ense": 1352,
      "Ġlo": 1353,
      "fore": 1354,
      "Ġdue": 1355,
      "However": 1356,
      "ince": 1357,
      "any": 1358,
      "ĠSp": 1359,
      "Ġcommon": 1360,
      "till": 1361,
      "Ġser": 1362,
      "art": 1363,
      "Ġfunction": 1364,
      "conomic": 1365,
      "Ġcentury": 1366,
      "ruction": 1367,
      "ield": 1368,
      "tice": 1369,
      "ake": 1370,
      "Ġpublic": 1371,
      "Ġrest": 1372,
      "ances": 1373,
      "Ġwater": 1374,
      "Ġretrieval": 1375,
      "Ġdeterm": 1376,
      "ĠKey": 1377,
      "Ġfocus": 1378,
      "ĠSpecific": 1379,
      "Ġdesc": 1380,
      "ently": 1381,
      "Ġneeded": 1382,
      "Ġmarket": 1383,
      "But": 1384,
      "very": 1385,
      "oid": 1386,
      "Ġsmall": 1387,
      "Ġcurrent": 1388,
      "Ġpost": 1389,
      "Ġcreates": 1390,
      "Ġresponse": 1391,
      "Ġreason": 1392,
      "her": 1393,
      "Ġgap": 1394,
      "Ġadd": 1395,
      "urb": 1396,
      "yle": 1397,
      "agement": 1398,
      "Ġenti": 1399,
      "rid": 1400,
      "Ġfac": 1401,
      "ling": 1402,
      "Ġmeasure": 1403,
      "Ġassum": 1404,
      "aterial": 1405,
      "Ġdown": 1406,
      "atis": 1407,
      ".\"": 1408,
      "Ġel": 1409,
      "Ġlater": 1410,
      "Ġcare": 1411,
      "Ġfail": 1412,
      "Ġwill": 1413,
      "mented": 1414,
      "ĠAssessment": 1415,
      "Ġmethods": 1416,
      "Ġmus": 1417,
      "amp": 1418,
      "ĠIs": 1419,
      "ope": 1420,
      "ĠHowever": 1421,
      "ah": 1422,
      "rag": 1423,
      "Ġpotential": 1424,
      "Ġoptim": 1425,
      "ĠConst": 1426,
      "rial": 1427,
      "Ġstudi": 1428,
      "50": 1429,
      "Ġfunc": 1430,
      "Ġcomb": 1431,
      "yc": 1432,
      "Ġnatural": 1433,
      "Ġstat": 1434,
      "Ġgu": 1435,
      "Ġhealth": 1436,
      "Ġdid": 1437,
      "ival": 1438,
      "ways": 1439,
      "Ġcirc": 1440,
      "Ġu": 1441,
      "Ġremain": 1442,
      "ĠInformation": 1443,
      "arri": 1444,
      "etwork": 1445,
      "wh": 1446,
      "Ġnecess": 1447,
      "Ġless": 1448,
      "oh": 1449,
      "xim": 1450,
      "veness": 1451,
      "Ġeng": 1452,
      "Ġspecif": 1453,
      "eti": 1454,
      "port": 1455,
      "Ġiniti": 1456,
      "Ġsci": 1457,
      "ĠSe": 1458,
      "ink": 1459,
      "ingle": 1460,
      "ium": 1461,
      "Ġcall": 1462,
      "athematical": 1463,
      "utions": 1464,
      "Ġimpact": 1465,
      "Ġrisk": 1466,
      "ison": 1467,
      "elp": 1468,
      "ock": 1469,
      "Ġdecision": 1470,
      "gth": 1471,
      "entially": 1472,
      "Ġagainst": 1473,
      "Ġcheck": 1474,
      "Ġthough": 1475,
      "ĠChin": 1476,
      "fficient": 1477,
      "Ġcity": 1478,
      "Ġavail": 1479,
      "ries": 1480,
      "Ġspecies": 1481,
      "ulatory": 1482,
      "tle": 1483,
      "lection": 1484,
      "uture": 1485,
      "Ġbecame": 1486,
      "Ġclass": 1487,
      "Ġeffici": 1488,
      "Ġunderstanding": 1489,
      "18": 1490,
      "ertainty": 1491,
      "Ġindust": 1492,
      "ick": 1493,
      "arily": 1494,
      "Ġcalc": 1495,
      "Ġgeneral": 1496,
      "ĠEm": 1497,
      "Ġsee": 1498,
      "Ġnon": 1499,
      "Ġstud": 1500,
      "erification": 1501,
      "ract": 1502,
      "Ġinv": 1503,
      "Ġlimited": 1504,
      "ody": 1505,
      "ĠDe": 1506,
      "Ġgovernment": 1507,
      "outh": 1508,
      "Ġlife": 1509,
      "ilos": 1510,
      "Ġknown": 1511,
      "ilities": 1512,
      "red": 1513,
      "Ġworld": 1514,
      "term": 1515,
      "Ġenergy": 1516,
      "ner": 1517,
      "ulations": 1518,
      "ĠThese": 1519,
      "ering": 1520,
      "tively": 1521,
      "Ġrepresents": 1522,
      "ership": 1523,
      "to": 1524,
      "ilar": 1525,
      "Ġapproaches": 1526,
      "ession": 1527,
      "osed": 1528,
      "ilosoph": 1529,
      "Ġ9": 1530,
      "tives": 1531,
      "itu": 1532,
      "gen": 1533,
      "ploy": 1534,
      "Ġkey": 1535,
      "Ġtem": 1536,
      "ĠAc": 1537,
      "St": 1538,
      "Ġhim": 1539,
      "ĠLimit": 1540,
      "man": 1541,
      "Ġinstitutional": 1542,
      "Ġcase": 1543,
      "omm": 1544,
      "Ġsepar": 1545,
      "Ġauthority": 1546,
      "Ġdemon": 1547,
      "ĠEng": 1548,
      "Ġfre": 1549,
      "Ġback": 1550,
      "Ġpur": 1551,
      "Ġgrowth": 1552,
      "Ġtre": 1553,
      "play": 1554,
      "erc": 1555,
      "uch": 1556,
      "Ġactually": 1557,
      "Ġadminist": 1558,
      "utes": 1559,
      "Ġliter": 1560,
      "Ġrecord": 1561,
      "tiveness": 1562,
      "Ġremains": 1563,
      "Ġcomplete": 1564,
      "ference": 1565,
      "roduc": 1566,
      "Ġhelp": 1567,
      "iness": 1568,
      "Ġge": 1569,
      "Ġvol": 1570,
      "Ġshould": 1571,
      "Ġvis": 1572,
      "Ġobserv": 1573,
      "Ġoutcomes": 1574,
      "abor": 1575,
      "Ġz": 1576,
      "Ġbound": 1577,
      "els": 1578,
      "ĠEconomic": 1579,
      "emporary": 1580,
      "Ġ10": 1581,
      "Ġbo": 1582,
      "istance": 1583,
      "Ġstill": 1584,
      "tics": 1585,
      "Ġmaterial": 1586,
      "Ġthen": 1587,
      "Ġimpro": 1588,
      "):": 1589,
      "cent": 1590,
      "Ġtran": 1591,
      "Ġadvant": 1592,
      "pendent": 1593,
      "Ġrequired": 1594,
      "ne": 1595,
      "oral": 1596,
      "Ġpsych": 1597,
      "Ġintegration": 1598,
      "chie": 1599,
      "Ġdri": 1600,
      "ring": 1601,
      "odern": 1602,
      "Ġconsist": 1603,
      "Ġbased": 1604,
      "ormal": 1605,
      "az": 1606,
      "Ġcho": 1607,
      "istory": 1608,
      "10": 1609,
      "assi": 1610,
      "Final": 1611,
      "Ġide": 1612,
      "Ġaccess": 1613,
      "vention": 1614,
      "based": 1615,
      "Ġaut": 1616,
      "Ġlarge": 1617,
      "rastructure": 1618,
      "ms": 1619,
      "ĠZ": 1620,
      "emantic": 1621,
      "ĠPol": 1622,
      "ae": 1623,
      "Ġstudies": 1624,
      "ices": 1625,
      "Ġhy": 1626,
      "Ġlocal": 1627,
      "Ġfil": 1628,
      "line": 1629,
      "Ġachie": 1630,
      "Ġdynam": 1631,
      "Ġlimitations": 1632,
      "Ġnetwork": 1633,
      "Ġchild": 1634,
      "Ġdefini": 1635,
      "akes": 1636,
      "dis": 1637,
      "cep": 1638,
      "Ġtax": 1639,
      "Ġbefore": 1640,
      "Ġperformance": 1641,
      "Ġspecifically": 1642,
      "iven": 1643,
      "Ġess": 1644,
      "ests": 1645,
      "Ġcour": 1646,
      "Ġpractical": 1647,
      "Ġcannot": 1648,
      "Ġbey": 1649,
      "Ġbeyond": 1650,
      "clusion": 1651,
      "Ġcapac": 1652,
      "ĠAmerican": 1653,
      "Ġdistinction": 1654,
      "vi": 1655,
      "Ġabs": 1656,
      "Ġbenef": 1657,
      "Ġmust": 1658,
      "lam": 1659,
      "Ġentire": 1660,
      "ables": 1661,
      "ror": 1662,
      "Ġflow": 1663,
      "Ġbreak": 1664,
      "An": 1665,
      "Ġtheore": 1666,
      "iples": 1667,
      "ederal": 1668,
      "orts": 1669,
      "Ġeduc": 1670,
      "orth": 1671,
      "Ġtest": 1672,
      "sian": 1673,
      "sequ": 1674,
      "Ġindic": 1675,
      "Ġbetter": 1676,
      "ĠQuery": 1677,
      "Ġdomin": 1678,
      "Ġrights": 1679,
      "Ġdemonstr": 1680,
      "ficial": 1681,
      "Ġsources": 1682,
      "illion": 1683,
      "ĠMed": 1684,
      "Ġlanguage": 1685,
      "Ġmade": 1686,
      "Ġchallenges": 1687,
      "Ġterms": 1688,
      "Ġtrade": 1689,
      "Ġnature": 1690,
      "ingu": 1691,
      "mediate": 1692,
      "Ġstates": 1693,
      "Ġdetailed": 1694,
      "inical": 1695,
      "ansion": 1696,
      "asc": 1697,
      "ĠPh": 1698,
      "oci": 1699,
      "Ġworks": 1700,
      "Ġimple": 1701,
      "Ġadop": 1702,
      "Ġpossible": 1703,
      "Ġanswer": 1704,
      "Ġdif": 1705,
      "Ġear": 1706,
      "omain": 1707,
      "Ġseveral": 1708,
      "Ġrole": 1709,
      "Ġent": 1710,
      "ĠOr": 1711,
      "Ġ$": 1712,
      "Ġ&": 1713,
      "Ġsk": 1714,
      "ĠDec": 1715,
      "ull": 1716,
      "ft": 1717,
      "verse": 1718,
      "du": 1719,
      "Ġwhe": 1720,
      "Ġdep": 1721,
      "60": 1722,
      "Ġbecome": 1723,
      "Ġmis": 1724,
      "phas": 1725,
      "Ġproduction": 1726,
      "Ġprimary": 1727,
      "Ġprinciples": 1728,
      "rench": 1729,
      "Ġoccur": 1730,
      "thers": 1731,
      "Ġsimilar": 1732,
      "Ġvarious": 1733,
      "ety": 1734,
      "sc": 1735,
      "ĠUS": 1736,
      "Ġphilosoph": 1737,
      "Ġhistory": 1738,
      "Ġconcern": 1739,
      "ĠFramework": 1740,
      "Ġ199": 1741,
      "Ġneeds": 1742,
      "Ġtreatment": 1743,
      "'m": 1744,
      "Ġuns": 1745,
      "usion": 1746,
      "Ġhigher": 1747,
      "Ġsingle": 1748,
      "Ġmen": 1749,
      "Ġcontrib": 1750,
      "sibility": 1751,
      "Ġcreate": 1752,
      "versity": 1753,
      "tices": 1754,
      "lex": 1755,
      "Ġphysical": 1756,
      "ĠConstrain": 1757,
      "ll": 1758,
      "Ġposi": 1759,
      "ats": 1760,
      "other": 1761,
      "Ġbecomes": 1762,
      "ĠSy": 1763,
      "Ġterrit": 1764,
      "Ġconstraint": 1765,
      "ternal": 1766,
      "fied": 1767,
      "ĠNew": 1768,
      "Ġemerg": 1769,
      "Ġ{\\": 1770,
      "Ġstructures": 1771,
      "ĠEuropean": 1772,
      "Ġcapacity": 1773,
      "Ġthree": 1774,
      "Ġsimple": 1775,
      "Ġsl": 1776,
      "Ġname": 1777,
      "Ġpreserv": 1778,
      "Ġaround": 1779,
      "Ġrates": 1780,
      "ouse": 1781,
      "Ġexpansion": 1782,
      "Ġimportant": 1783,
      "Ġhand": 1784,
      "Ġcases": 1785,
      "ognition": 1786,
      "ivil": 1787,
      "ĠVerification": 1788,
      "Ġsignificantly": 1789,
      "aly": 1790,
      "Ġfore": 1791,
      "?\"": 1792,
      "less": 1793,
      "Ġelements": 1794,
      "oman": 1795,
      "Ġdiv": 1796,
      "Ġoff": 1797,
      "aneous": 1798,
      "Ġnumber": 1799,
      "Ġthose": 1800,
      "Ġwrit": 1801,
      "emic": 1802,
      "Ġuni": 1803,
      "Ġexact": 1804,
      "ĠReg": 1805,
      "Ġ17": 1806,
      "itect": 1807,
      "Ġmeaning": 1808,
      "sp": 1809,
      "Ġland": 1810,
      "ĠNeed": 1811,
      "versal": 1812,
      "ĠMulti": 1813,
      "ĠGerm": 1814,
      "Ġfamily": 1815,
      "Ġtype": 1816,
      "NB": 1817,
      "thern": 1818,
      "put": 1819,
      "Ġbel": 1820,
      "Ġbuil": 1821,
      "oms": 1822,
      "Ġcompon": 1823,
      "Ġprogram": 1824,
      "action": 1825,
      "Core": 1826,
      "ĠCultural": 1827,
      "Ġaddress": 1828,
      "Ġdepends": 1829,
      "Ġgroups": 1830,
      "eration": 1831,
      "Ġmedical": 1832,
      "Ġstatus": 1833,
      "Ġdifferences": 1834,
      "Ġrequirements": 1835,
      "ĠTim": 1836,
      "Ġstructural": 1837,
      "Ġarea": 1838,
      "Ġcur": 1839,
      "ects": 1840,
      "Ġtotal": 1841,
      "ches": 1842,
      "Ġpresent": 1843,
      "Ġvalid": 1844,
      "Ġmemory": 1845,
      "Ġlevels": 1846,
      "Ġsecond": 1847,
      "ator": 1848,
      "ifferent": 1849,
      "onial": 1850,
      "Ġshift": 1851,
      "ask": 1852,
      "yl": 1853,
      "ĠMechanism": 1854,
      "ule": 1855,
      "go": 1856,
      "xts": 1857,
      "ended": 1858,
      "ĠCont": 1859,
      "ocial": 1860,
      "Ġtarg": 1861,
      "time": 1862,
      "egal": 1863,
      "Ġbal": 1864,
      "olution": 1865,
      "Ġmake": 1866,
      "urban": 1867,
      "omple": 1868,
      "diction": 1869,
      "izing": 1870,
      "Ġcreated": 1871,
      "Ġcult": 1872,
      "ales": 1873,
      "Ġefficiency": 1874,
      "fric": 1875,
      "Ġmechan": 1876,
      "Ġanti": 1877,
      "Ġfig": 1878,
      "mission": 1879,
      "Ġpric": 1880,
      "ĠGen": 1881,
      "ponse": 1882,
      "Ġpoint": 1883,
      "Ġissue": 1884,
      "Ġissues": 1885,
      "Ġprocesses": 1886,
      "tr": 1887,
      "Ġlog": 1888,
      "urity": 1889,
      "ĠFor": 1890,
      "ĠGeographic": 1891,
      "Ġresult": 1892,
      "ĠConstraints": 1893,
      "onomy": 1894,
      "ĠWhile": 1895,
      "Ġ15": 1896,
      "plications": 1897,
      "Ġ197": 1898,
      "racy": 1899,
      "Ġmanagement": 1900,
      "Ġcyc": 1901,
      "tish": 1902,
      "Ġsurv": 1903,
      "anced": 1904,
      "Ġgo": 1905,
      "omet": 1906,
      "Ġprincip": 1907,
      "orn": 1908,
      "Ġdam": 1909,
      "ton": 1910,
      "estern": 1911,
      "fact": 1912,
      "Ġti": 1913,
      "Ġusing": 1914,
      "Ġline": 1915,
      "ified": 1916,
      "Ġvalue": 1917,
      "usiness": 1918,
      "Ġmeans": 1919,
      "Ġcalled": 1920,
      "ĠWar": 1921,
      "Ġtension": 1922,
      "Ġinvolves": 1923,
      "Ġmaking": 1924,
      "Ġnar": 1925,
      "Ġfield": 1926,
      "reg": 1927,
      "ĠLogical": 1928,
      "Ġavailable": 1929,
      "Ġdistribution": 1930,
      "Ġstrategy": 1931,
      "Ġmy": 1932,
      "Ġdeath": 1933,
      "Ġrele": 1934,
      "hensive": 1935,
      "ible": 1936,
      "Ġtri": 1937,
      "the": 1938,
      "Ġdescrib": 1939,
      "oring": 1940,
      "ounter": 1941,
      "Ġnational": 1942,
      "Ġfuture": 1943,
      "pite": 1944,
      "Ġinfrastructure": 1945,
      "obal": 1946,
      "Ġ198": 1947,
      "Ġtoward": 1948,
      "Ġconsum": 1949,
      "Ġ'": 1950,
      "Ġenc": 1951,
      "ception": 1952,
      "be": 1953,
      "Ġdise": 1954,
      "ird": 1955,
      "Ġdeb": 1956,
      "lects": 1957,
      "Ġsuper": 1958,
      "Ġsubst": 1959,
      "Ġstrategic": 1960,
      "Ġregard": 1961,
      "ĠCore": 1962,
      "ĠLi": 1963,
      "Ġconflic": 1964,
      "gest": 1965,
      "Ġmathematical": 1966,
      "ict": 1967,
      "ĠStr": 1968,
      "Ġrul": 1969,
      "Ġplay": 1970,
      "Ġtransition": 1971,
      "User": 1972,
      "nov": 1973,
      "Ġwhether": 1974,
      "NA": 1975,
      "Ġtechniqu": 1976,
      "Ġspace": 1977,
      "Ġcompre": 1978,
      "ĠSc": 1979,
      "ternative": 1980,
      "Ġcritical": 1981,
      "face": 1982,
      "Ġlow": 1983,
      "hold": 1984,
      "ĠSome": 1985,
      "style": 1986,
      "ĠLe": 1987,
      "pro": 1988,
      "ger": 1989,
      "Ġconver": 1990,
      "Ġconcept": 1991,
      "ancial": 1992,
      "Ġdetails": 1993,
      "Ġinternational": 1994,
      "ived": 1995,
      "Ġpractices": 1996,
      "ĠComple": 1997,
      "ognitive": 1998,
      "ults": 1999,
      "verage": 2000,
      "ints": 2001,
      "Ġothers": 2002,
      "Ġcompeti": 2003,
      "iety": 2004,
      "sh": 2005,
      "Ġeffectiveness": 2006,
      "lying": 2007,
      "Ġareas": 2008,
      "Ch": 2009,
      "Ġdoesn": 2010,
      "hib": 2011,
      "Ġage": 2012,
      "Ġlarg": 2013,
      "uted": 2014,
      "Ġfood": 2015,
      "ank": 2016,
      "ai": 2017,
      "Ġsize": 2018,
      "ems": 2019,
      "Ġtheoretical": 2020,
      "ritish": 2021,
      "Ġrelationships": 2022,
      "ĠAfric": 2023,
      "Ġ16": 2024,
      "Ġitself": 2025,
      "imal": 2026,
      "Ġcomparative": 2027,
      "Ġchallenge": 2028,
      "Ġrate": 2029,
      "ratic": 2030,
      "Ġtypes": 2031,
      "ili": 2032,
      "Ġexperience": 2033,
      "30": 2034,
      "Ġcentral": 2035,
      "ultaneous": 2036,
      "ĠWhen": 2037,
      "ication": 2038,
      "jects": 2039,
      "ĠX": 2040,
      "Ġprop": 2041,
      "ĠTechn": 2042,
      "Ġcomparison": 2043,
      "Ġclear": 2044,
      "Ġemphas": 2045,
      "ash": 2046,
      "ĠQ": 2047,
      "Ġmovement": 2048,
      "ream": 2049,
      "arent": 2050,
      "Ġconfir": 2051,
      "ify": 2052,
      "Ġstrong": 2053,
      "knowledge": 2054,
      "Ġframeworks": 2055,
      "ĠPer": 2056,
      "Ġdistinct": 2057,
      "reme": 2058,
      "Ġsitu": 2059,
      "tian": 2060,
      "Ġreflects": 2061,
      "sia": 2062,
      "Ġlear": 2063,
      "Ġdynamics": 2064,
      "Ġgre": 2065,
      "ixed": 2066,
      "Ġbody": 2067,
      "vents": 2068,
      "Ġviol": 2069,
      "eter": 2070,
      "Ġdon": 2071,
      "Ġdirectly": 2072,
      "ones": 2073,
      "Ġcoll": 2074,
      "entific": 2075,
      "gu": 2076,
      "ĠCan": 2077,
      "ded": 2078,
      "ogn": 2079,
      "Ġgood": 2080,
      "ĠEnglish": 2081,
      "Ġorder": 2082,
      "Ġscope": 2083,
      "Ġregions": 2084,
      "Ġgiven": 2085,
      "ained": 2086,
      "Ġprinciple": 2087,
      "Ġmuch": 2088,
      "Ġscho": 2089,
      "force": 2090,
      "Ġcomprehensive": 2091,
      "igital": 2092,
      "Ġrecognition": 2093,
      "Ġreli": 2094,
      "Ġcoord": 2095,
      "Ġcertain": 2096,
      "rame": 2097,
      "pid": 2098,
      "Ġview": 2099,
      "Ġfrequ": 2100,
      "inary": 2101,
      "Ġproced": 2102,
      "ators": 2103,
      "Ġeth": 2104,
      "Ġeffect": 2105,
      "Ġsaf": 2106,
      "Ġcountries": 2107,
      "Ġverification": 2108,
      "ĠUnited": 2109,
      "Ġtemper": 2110,
      "Ġpractice": 2111,
      "itual": 2112,
      "Ġsust": 2113,
      "enced": 2114,
      "Ġevery": 2115,
      "like": 2116,
      "Ġamong": 2117,
      "Ġadministrative": 2118,
      "ĠQu": 2119,
      "ening": 2120,
      "anning": 2121,
      "Ġindeed": 2122,
      "ym": 2123,
      "``": 2124,
      "Ġ/": 2125,
      "Ġspecialized": 2126,
      "Ġpass": 2127,
      "fy": 2128,
      "ĠTra": 2129,
      "Ġprovides": 2130,
      "Ġprecise": 2131,
      "Ġstudy": 2132,
      "Ġexample": 2133,
      "Ġtemporal": 2134,
      "Ġoperations": 2135,
      "ither": 2136,
      "lo": 2137,
      "Ġpriv": 2138,
      "15": 2139,
      "Ġurban": 2140,
      "Ġreasoning": 2141,
      "display": 2142,
      "overy": 2143,
      "Ġregulatory": 2144,
      "Ġtechnical": 2145,
      "Ġinterpretation": 2146,
      "ections": 2147,
      "Ġsuggest": 2148,
      "ĠPl": 2149,
      "Ġactual": 2150,
      "duce": 2151,
      "Ġther": 2152,
      "Ġcreating": 2153,
      "Ġcateg": 2154,
      "ĠThey": 2155,
      "Ġapplications": 2156,
      "displaystyle": 2157,
      "ogen": 2158,
      "rup": 2159,
      "Ġprocessing": 2160,
      "Ġproblems": 2161,
      "day": 2162,
      "Ġsequ": 2163,
      "part": 2164,
      "Ġarchitect": 2165,
      "ental": 2166,
      "pir": 2167,
      "Ġunsure": 2168,
      "Ġsymb": 2169,
      "cient": 2170,
      "ĠHis": 2171,
      "Ġactiv": 2172,
      "Re": 2173,
      "ready": 2174,
      "ĠBritish": 2175,
      "aving": 2176,
      "vision": 2177,
      "ging": 2178,
      "Ġvary": 2179,
      "Ġquan": 2180,
      "ĠStates": 2181,
      "essional": 2182,
      "Ġloss": 2183,
      "imension": 2184,
      "ites": 2185,
      "Ġpotentially": 2186,
      "ĠFrench": 2187,
      "Ġyear": 2188,
      "Ġclaims": 2189,
      "Ġdiffic": 2190,
      "Ġair": 2191,
      "ĠAt": 2192,
      "Ġpersist": 2193,
      "Ġgenerally": 2194,
      "we": 2195,
      "ĠPhysical": 2196,
      "Ġresistance": 2197,
      "Ġprotection": 2198,
      "Ġemploy": 2199,
      "anish": 2200,
      "idd": 2201,
      "Ġassoci": 2202,
      "aces": 2203,
      "Ġmaintaining": 2204,
      "Ġwomen": 2205,
      "eting": 2206,
      "Ġsystematic": 2207,
      "Ġuncertainty": 2208,
      "down": 2209,
      "ĠCol": 2210,
      "arian": 2211,
      "Ġcommunity": 2212,
      "Ġrefer": 2213,
      "ĠAm": 2214,
      "Ġtransformation": 2215,
      "ibility": 2216,
      "Ġforces": 2217,
      "Ġrelative": 2218,
      "io": 2219,
      "aps": 2220,
      "leg": 2221,
      "asing": 2222,
      "apping": 2223,
      "Ġscen": 2224,
      "Ġcapital": 2225,
      "iss": 2226,
      "Ġparticip": 2227,
      "Ġschol": 2228,
      "Ġclassi": 2229,
      "Ġdifference": 2230,
      "imate": 2231,
      "place": 2232,
      "ĠPartial": 2233,
      "rand": 2234,
      "aling": 2235,
      "ze": 2236,
      "Ġmillion": 2237,
      "ĠLegal": 2238,
      "Ġcosts": 2239,
      "Ġfunctions": 2240,
      "onal": 2241,
      "Ġinher": 2242,
      "Ġformation": 2243,
      "ably": 2244,
      "ung": 2245,
      "Ġrecogn": 2246,
      "Ġprior": 2247,
      "Ġproperties": 2248,
      "Ġconcent": 2249,
      "Ġoriginal": 2250,
      "Ġnam": 2251,
      "Ġpersonal": 2252,
      "ĠCons": 2253,
      "ining": 2254,
      "ered": 2255,
      "Ġbusiness": 2256,
      "Ġsimultaneous": 2257,
      "Ġsource": 2258,
      "Ġpreced": 2259,
      "gn": 2260,
      "uris": 2261,
      "Ġproperty": 2262,
      "vements": 2263,
      "ĠII": 2264,
      "ractical": 2265,
      "istics": 2266,
      "rength": 2267,
      "valu": 2268,
      "otional": 2269,
      "Ġreach": 2270,
      "Ġaccept": 2271,
      "Ġinclude": 2272,
      "Ġself": 2273,
      "Ġunclear": 2274,
      "Ġalign": 2275,
      "pecial": 2276,
      "Ġdespite": 2277,
      "Ġdisease": 2278,
      "Ġprob": 2279,
      "Ġexists": 2280,
      "ography": 2281,
      "side": 2282,
      "ĠState": 2283,
      "Ġrange": 2284,
      "dom": 2285,
      "Ġwhy": 2286,
      "aging": 2287,
      "Ġnav": 2288,
      "Ġright": 2289,
      "Ġcorrect": 2290,
      "Ġcomponents": 2291,
      "Ġve": 2292,
      "po": 2293,
      "Ġalready": 2294,
      "Ġregional": 2295,
      "atch": 2296,
      "ĠRus": 2297,
      "udd": 2298,
      "Ġsince": 2299,
      "Ġbrain": 2300,
      "\".": 2301,
      "specific": 2302,
      "Ġfrag": 2303,
      "Ġshort": 2304,
      "ardi": 2305,
      "ĠAct": 2306,
      "tig": 2307,
      "ĠMe": 2308,
      "Ġtiming": 2309,
      "ierarch": 2310,
      "40": 2311,
      "Ġinvest": 2312,
      "Geographic": 2313,
      "ensi": 2314,
      "ensity": 2315,
      "Ġcause": 2316,
      "Ġcross": 2317,
      "Ġstrategies": 2318,
      "annot": 2319,
      "Ġmodels": 2320,
      "met": 2321,
      "Ġquality": 2322,
      "Ġidentity": 2323,
      "Ġaffect": 2324,
      "ĠBC": 2325,
      "ĠRec": 2326,
      "Ġhyp": 2327,
      "ĠWe": 2328,
      "Ġinnov": 2329,
      "ĠModern": 2330,
      "Bre": 2331,
      "Ġprom": 2332,
      "ĠDifferent": 2333,
      "Ġblood": 2334,
      "ĠComp": 2335,
      "thing": 2336,
      "tification": 2337,
      "emical": 2338,
      "Ġphys": 2339,
      "ides": 2340,
      "Ġtext": 2341,
      "abilities": 2342,
      "Ġdeveloped": 2343,
      "pire": 2344,
      "mit": 2345,
      "ĠIns": 2346,
      "Ġarti": 2347,
      "Ġdocumented": 2348,
      "Ġprimarily": 2349,
      "omplete": 2350,
      "apan": 2351,
      "agnos": 2352,
      "Ġenvironmental": 2353,
      "ĠTemporal": 2354,
      "For": 2355,
      "Ġappear": 2356,
      "Ġsex": 2357,
      "Ġlack": 2358,
      "Ġappears": 2359,
      "Ġtradition": 2360,
      "Ġcruc": 2361,
      "Ġpati": 2362,
      "Ġadaptation": 2363,
      "ses": 2364,
      "Ġbase": 2365,
      "Tim": 2366,
      "ume": 2367,
      "icro": 2368,
      "Ġmass": 2369,
      "ĠCompar": 2370,
      "ised": 2371,
      "osph": 2372,
      "ocratic": 2373,
      "alle": 2374,
      "Ġindividuals": 2375,
      "des": 2376,
      "aster": 2377,
      "off": 2378,
      "angulation": 2379,
      "itim": 2380,
      "ode": 2381,
      "ought": 2382,
      "Ġspe": 2383,
      "texts": 2384,
      "ĠChinese": 2385,
      "volutionary": 2386,
      "Ġcontra": 2387,
      "acts": 2388,
      "ians": 2389,
      "rated": 2390,
      "Ġtrain": 2391,
      "ĠNe": 2392,
      "Ġ>": 2393,
      "Ġfactor": 2394,
      "Ġconnection": 2395,
      "ĠStrateg": 2396,
      "Ġcamp": 2397,
      "osure": 2398,
      "Ġconstitutional": 2399,
      "Ġuntil": 2400,
      "ote": 2401,
      "izes": 2402,
      "Ġtimeline": 2403,
      "Ġpopulations": 2404,
      "Ġentirely": 2405,
      "ĠBoth": 2406,
      "Ġ202": 2407,
      "ware": 2408,
      "Ġsuccessful": 2409,
      "uration": 2410,
      "Ġlight": 2411,
      "Ġadoption": 2412,
      "Ġcontexts": 2413,
      "big": 2414,
      "Ġincreased": 2415,
      "ĠAnswer": 2416,
      "Ġprecision": 2417,
      "ufficient": 2418,
      "17": 2419,
      "12": 2420,
      "ember": 2421,
      "Ġpain": 2422,
      "Ġrece": 2423,
      "Ġnumbers": 2424,
      "Ġcrucial": 2425,
      "bo": 2426,
      "Ġprote": 2427,
      "ĠContextual": 2428,
      "Ġalong": 2429,
      "atures": 2430,
      "Ġevol": 2431,
      "actions": 2432,
      "Ġnormal": 2433,
      "Ġvery": 2434,
      "Ġconsidered": 2435,
      "ceed": 2436,
      "cape": 2437,
      "inking": 2438,
      "Ġtransport": 2439,
      "Ġdamage": 2440,
      "Ġcri": 2441,
      "ĠRequ": 2442,
      "Ġattem": 2443,
      "Ġcausal": 2444,
      "Ġexten": 2445,
      "Ġreflect": 2446,
      "ĠEvidence": 2447,
      "ened": 2448,
      "ademic": 2449,
      "ref": 2450,
      "Ġneg": 2451,
      "Ġmetric": 2452,
      "mon": 2453,
      "Ġold": 2454,
      "Ġevent": 2455,
      "ĠLimited": 2456,
      "rab": 2457,
      "Ġvir": 2458,
      "ĠWestern": 2459,
      "ĠDirect": 2460,
      "Ġprovided": 2461,
      "Ġofficial": 2462,
      "Ġcompared": 2463,
      "Why": 2464,
      "Ġreduced": 2465,
      "ends": 2466,
      "Ġincrease": 2467,
      "omb": 2468,
      "Ġimplementation": 2469,
      "Ġcognitive": 2470,
      "ĠSouth": 2471,
      "ush": 2472,
      "Ġ,": 2473,
      "Ġimmun": 2474,
      "Ġpoints": 2475,
      "dual": 2476,
      "rect": 2477,
      "Ġcells": 2478,
      "Ġlay": 2479,
      "ĠResponse": 2480,
      "Ġapplication": 2481,
      "Ġimplications": 2482,
      "Ġability": 2483,
      "raction": 2484,
      "Ġstrength": 2485,
      "}}": 2486,
      "ĠGerman": 2487,
      "Ġassumes": 2488,
      "Ġspir": 2489,
      "Ġinterest": 2490,
      "Ġinternal": 2491,
      "Ġdest": 2492,
      "sts": 2493,
      "Ġcivil": 2494,
      "Ġresources": 2495,
      "--": 2496,
      "Ġshe": 2497,
      "Ġ)": 2498,
      "Ġstability": 2499,
      "Ġreality": 2500,
      "Ġculture": 2501,
      "itiz": 2502,
      "Ġaccount": 2503,
      "Ġfederal": 2504,
      "Ġsubstan": 2505,
      "Ġfav": 2506,
      "ector": 2507,
      "ead": 2508,
      "Ġ?": 2509,
      "Ġradi": 2510,
      "assive": 2511,
      "ĠTrans": 2512,
      "Ġcore": 2513,
      "Ġlower": 2514,
      "Ġstar": 2515,
      "Ġstatis": 2516,
      "omatic": 2517,
      "Ġeducation": 2518,
      "Ġeffective": 2519,
      "Ġbuilding": 2520,
      "Ġforms": 2521,
      "Ġevolutionary": 2522,
      "Ġcommit": 2523,
      "Ġfinancial": 2524,
      "omposition": 2525,
      "Ġchildren": 2526,
      "iring": 2527,
      "alse": 2528,
      "use": 2529,
      "Ġ12": 2530,
      "urch": 2531,
      "view": 2532,
      "Ġhapp": 2533,
      "mentary": 2534,
      "orial": 2535,
      "Ġenvironment": 2536,
      "Ġessential": 2537,
      "Ġpure": 2538,
      "ĠDomain": 2539,
      "ĠSocial": 2540,
      "ressive": 2541,
      "pective": 2542,
      "ending": 2543,
      "Ġindustrial": 2544,
      "Ġbenefits": 2545,
      "order": 2546,
      "Ġemb": 2547,
      "Ġprotoc": 2548,
      "ercial": 2549,
      "ĠRep": 2550,
      "Ġjus": 2551,
      "Ġcommercial": 2552,
      "oviet": 2553,
      "Ġearli": 2554,
      "Ġread": 2555,
      "Ġpathways": 2556,
      "Ġhierarch": 2557,
      "ades": 2558,
      "Ġphen": 2559,
      "get": 2560,
      "Ġdifficult": 2561,
      "Ġtraditions": 2562,
      "Ġtechniques": 2563,
      "ĠBe": 2564,
      "ĠDem": 2565,
      "Ġ:": 2566,
      "ĠUni": 2567,
      "aid": 2568,
      "cl": 2569,
      "Ġdemand": 2570,
      "ient": 2571,
      "Ġindepend": 2572,
      "uddh": 2573,
      "Ġtransform": 2574,
      "Ġorganiz": 2575,
      "Ġglobal": 2576,
      "Ġbalance": 2577,
      "ording": 2578,
      "oses": 2579,
      "urg": 2580,
      "Ġsecurity": 2581,
      "Ġnetworks": 2582,
      "Ġlands": 2583,
      "que": 2584,
      "ender": 2585,
      "Ġresults": 2586,
      "Ġplace": 2587,
      "Ġfoundation": 2588,
      "Ġjuris": 2589,
      "Ġrapid": 2590,
      "Ġbasic": 2591,
      "Ġdeg": 2592,
      "Ġmakes": 2593,
      "Ġvariation": 2594,
      "atives": 2595,
      "ĠMan": 2596,
      "Ġmedia": 2597,
      "Ġsemantic": 2598,
      "Ġway": 2599,
      "Ġmeasurement": 2600,
      "ĠChina": 2601,
      "orph": 2602,
      "Ġprevent": 2603,
      "rict": 2604,
      "Ġour": 2605,
      "Ġfunctional": 2606,
      "astic": 2607,
      "gether": 2608,
      "ĠRel": 2609,
      "Ġrule": 2610,
      "Ġprem": 2611,
      "Ġestim": 2612,
      "Ġcountry": 2613,
      "Ġfailure": 2614,
      "ocation": 2615,
      "Ġri": 2616,
      "Ġreform": 2617,
      "Ġ14": 2618,
      "ĠEast": 2619,
      "70": 2620,
      "Ġscientific": 2621,
      "ony": 2622,
      "Ġfeed": 2623,
      "ĠJapan": 2624,
      "lands": 2625,
      "Ġpresence": 2626,
      "erate": 2627,
      "Ġclinical": 2628,
      "Ġweight": 2629,
      "Ġlogic": 2630,
      "ait": 2631,
      "itation": 2632,
      "ĠEach": 2633,
      "Ġadvantage": 2634,
      "200": 2635,
      "Ġplanning": 2636,
      "Ġformal": 2637,
      "Ġuser": 2638,
      "Ġscale": 2639,
      "Ġexisting": 2640,
      "Ġaccur": 2641,
      "Ġboundaries": 2642,
      "ĠRet": 2643,
      "ĠPolitical": 2644,
      "Ġscenari": 2645,
      "ĠSim": 2646,
      "Ġcontent": 2647,
      "omestic": 2648,
      "vant": 2649,
      "Pro": 2650,
      "Ġine": 2651,
      "Ġgenetic": 2652,
      "ĠComplex": 2653,
      "imin": 2654,
      "Ġconfusion": 2655,
      "Ġexplan": 2656,
      "Ġisn": 2657,
      "Ġlegis": 2658,
      "Ġsympt": 2659,
      "ique": 2660,
      "Ġreturn": 2661,
      "Ġ|": 2662,
      "Ġpen": 2663,
      "Ġliterature": 2664,
      "pri": 2665,
      "Ġpreservation": 2666,
      "Ġsum": 2667,
      "ysi": 2668,
      "rel": 2669,
      "Ġimpossible": 2670,
      "ublish": 2671,
      "Ġservice": 2672,
      "ĠSec": 2673,
      "Ġ196": 2674,
      "Ġattack": 2675,
      "14": 2676,
      "Ġlegitim": 2677,
      "Ġdomains": 2678,
      "Critical": 2679,
      "Ġforce": 2680,
      "Ġsafety": 2681,
      "fect": 2682,
      "urther": 2683,
      "Ġoptimization": 2684,
      "Answer": 2685,
      "Ġthreat": 2686,
      "otential": 2687,
      "Ġconflict": 2688,
      "udic": 2689,
      "uracy": 2690,
      "Ġsurface": 2691,
      "Ġcle": 2692,
      "raw": 2693,
      "Ġbias": 2694,
      "80": 2695,
      "Ġmembers": 2696,
      "Ġcontemporary": 2697,
      "arth": 2698,
      "tention": 2699,
      "eframe": 2700,
      "Ġsurvival": 2701,
      "ĠApp": 2702,
      "ulner": 2703,
      "ĠIf": 2704,
      "Ġengine": 2705,
      "inter": 2706,
      "Ġlabor": 2707,
      "Ġancient": 2708,
      "ĠLow": 2709,
      "Ġx": 2710,
      "oting": 2711,
      "ĠBl": 2712,
      "Ġdiss": 2713,
      "ma": 2714,
      "Ġcolonial": 2715,
      "ĠSystem": 2716,
      "Ġcapt": 2717,
      "Ġharm": 2718,
      "Ġvalues": 2719,
      "cri": 2720,
      "ik": 2721,
      "ancy": 2722,
      "Ġconsiderations": 2723,
      "Ġadvantages": 2724,
      "Ġlimitation": 2725,
      "Ġstandards": 2726,
      "ives": 2727,
      "Ġpurp": 2728,
      "Ġbreakdown": 2729,
      "Par": 2730,
      "Ġdeli": 2731,
      "Ġlaws": 2732,
      "Ġgaps": 2733,
      "ĠMultiple": 2734,
      "ength": 2735,
      "Ġmagn": 2736,
      "Ġsam": 2737,
      "Ġtimes": 2738,
      "ĠComparative": 2739,
      "Ġconserv": 2740,
      "Ġchoice": 2741,
      "Ġargu": 2742,
      "Ġfollowing": 2743,
      "ortun": 2744,
      "ĠOn": 2745,
      "Ġtarget": 2746,
      "Ġcrim": 2747,
      "Ġhum": 2748,
      "Ġvo": 2749,
      "dependent": 2750,
      "Ġparad": 2751,
      "reshold": 2752,
      "Ġfree": 2753,
      "ĠTri": 2754,
      "Ġmolec": 2755,
      "Ġpopular": 2756,
      "ole": 2757,
      "Ġ194": 2758,
      "Ġvaries": 2759,
      "range": 2760,
      "Ġcourt": 2761,
      "16": 2762,
      "Ġtrend": 2763,
      "ions": 2764,
      "Ġindustry": 2765,
      "ĠCour": 2766,
      "otal": 2767,
      "uro": 2768,
      "ĠMay": 2769,
      "Ġreport": 2770,
      "Ġbur": 2771,
      "Ġdefinitive": 2772,
      "Ġacid": 2773,
      "igration": 2774,
      "Ġrational": 2775,
      "mentally": 2776,
      "Ġaction": 2777,
      "Ġtransmission": 2778,
      "Ġnavig": 2779,
      "sel": 2780,
      "Conclusion": 2781,
      "ĠSpanish": 2782,
      "ĠMapping": 2783,
      "Ġword": 2784,
      "Ġfilm": 2785,
      "Ġevalu": 2786,
      "ruption": 2787,
      "ĠSch": 2788,
      "Ġfull": 2789,
      "back": 2790,
      "ots": 2791,
      "ĠPractical": 2792,
      "ills": 2793,
      "Ġorigin": 2794,
      "uries": 2795,
      "What": 2796,
      "ula": 2797,
      "Ġparsing": 2798,
      "ĠEurope": 2799,
      "Ġbarri": 2800,
      "ronic": 2801,
      "source": 2802,
      "ithout": 2803,
      "Ġcomput": 2804,
      "Ġtransfer": 2805,
      "knowled": 2806,
      "ura": 2807,
      "bigu": 2808,
      "ths": 2809,
      "Ġdiagnos": 2810,
      "Ġget": 2811,
      "ops": 2812,
      "Ġactivity": 2813,
      "Ġknow": 2814,
      "Ġperiods": 2815,
      "Ġpathway": 2816,
      "my": 2817,
      "uff": 2818,
      "Ġexec": 2819,
      "Ġdev": 2820,
      "Ġmaxim": 2821,
      "ĠMa": 2822,
      "times": 2823,
      "ividual": 2824,
      "isc": 2825,
      "ĠRed": 2826,
      "Ġintroduc": 2827,
      "ina": 2828,
      "Ġremo": 2829,
      "Ġcircum": 2830,
      "Ġmoral": 2831,
      "Ġera": 2832,
      "ĠIslam": 2833,
      "Ġdisp": 2834,
      "iddle": 2835,
      "Ġinitial": 2836,
      "Ġsil": 2837,
      "ĠWhat": 2838,
      "Ġphenomen": 2839,
      "Ġmom": 2840,
      "Ġevents": 2841,
      "cel": 2842,
      "Ġann": 2843,
      "Ġoffer": 2844,
      "Ġvulner": 2845,
      "ored": 2846,
      "ternational": 2847,
      "Ġlearning": 2848,
      "ged": 2849,
      "Ġmarri": 2850,
      "_{": 2851,
      "ĠBuddh": 2852,
      "Ġpolicies": 2853,
      "Ġseparate": 2854,
      "inology": 2855,
      "Ġens": 2856,
      "forcement": 2857,
      "Ġce": 2858,
      "ĠMin": 2859,
      "Ġsw": 2860,
      "Ġspeed": 2861,
      "pr": 2862,
      "Ġnow": 2863,
      "ĠAs": 2864,
      "ĠSoviet": 2865,
      "Ġserve": 2866,
      "ulate": 2867,
      "ĠWhy": 2868,
      "Ġfew": 2869,
      "Ġselection": 2870,
      "ĠRequires": 2871,
      "Ġavoid": 2872,
      "Ġstress": 2873,
      "Ġtraject": 2874,
      "Ġplant": 2875,
      "rug": 2876,
      "erve": 2877,
      "Ġpublish": 2878,
      "Ġconstruction": 2879,
      "Ġinvolved": 2880,
      "Ġrestric": 2881,
      "Ġ193": 2882,
      "ieval": 2883,
      "Ġallows": 2884,
      "Ġmetrics": 2885,
      "Ġder": 2886,
      "Ġeither": 2887,
      "Ġweak": 2888,
      "Ġvariables": 2889,
      "lective": 2890,
      "vious": 2891,
      "Ġlast": 2892,
      "ero": 2893,
      "pping": 2894,
      "Ġexpression": 2895,
      "Ġtechnology": 2896,
      "Ġled": 2897,
      "ĠCor": 2898,
      "Ġcontinued": 2899,
      "Ġuniversal": 2900,
      "Ġnuc": 2901,
      "Ġvia": 2902,
      "Ġshows": 2903,
      "Ġclassification": 2904,
      "issing": 2905,
      "Ġbeg": 2906,
      "Ġtemperature": 2907,
      "Ġconsequ": 2908,
      "andard": 2909,
      "Ġpressures": 2910,
      "year": 2911,
      "onic": 2912,
      "aign": 2913,
      "Ġthreshold": 2914,
      "Ġunique": 2915,
      "Ġextreme": 2916,
      "Ġsimultaneously": 2917,
      "Ġtogether": 2918,
      "ired": 2919,
      "Ġpresid": 2920,
      "Ġvariations": 2921,
      "ĠAust": 2922,
      "Ġanother": 2923,
      "ĠDNA": 2924,
      "ĠMore": 2925,
      "Ġgovernance": 2926,
      ",\"": 2927,
      "erous": 2928,
      "Ġoperational": 2929,
      "emb": 2930,
      "titative": 2931,
      "rant": 2932,
      "Ġfour": 2933,
      "oration": 2934,
      "cious": 2935,
      "Ġdesigned": 2936,
      "gor": 2937,
      "Ġreduction": 2938,
      "ional": 2939,
      "Ġemotional": 2940,
      "Ġlimits": 2941,
      "arsing": 2942,
      "Ġnecessary": 2943,
      "na": 2944,
      "Ġdel": 2945,
      "ective": 2946,
      "Ġdecl": 2947,
      "Ġtop": 2948,
      "ĠCritical": 2949,
      "Ġenh": 2950,
      "Ġaccuracy": 2951,
      "Ġdoctr": 2952,
      "Ġinvestment": 2953,
      "cy": 2954,
      "ufact": 2955,
      "ĠCal": 2956,
      "osing": 2957,
      "alls": 2958,
      "Ġappropri": 2959,
      "tistic": 2960,
      "Ġcust": 2961,
      "ister": 2962,
      "Ġexternal": 2963,
      "Ġclimate": 2964,
      "hy": 2965,
      "Ġconven": 2966,
      "Ġthroughout": 2967,
      "den": 2968,
      "arb": 2969,
      "Ġways": 2970,
      "atter": 2971,
      "ĠAb": 2972,
      "ounts": 2973,
      "Ex": 2974,
      "Ġground": 2975,
      "Ġincreasing": 2976,
      "Ġlarger": 2977,
      "Ġsound": 2978,
      "tations": 2979,
      "Ġfundamentally": 2980,
      "Ġcompetition": 2981,
      "encies": 2982,
      "Ġcalculation": 2983,
      "ommend": 2984,
      "Ġbegan": 2985,
      "gment": 2986,
      "Cl": 2987,
      "Ġmusic": 2988,
      "Ġdire": 2989,
      "Ġexpand": 2990,
      "Ġslow": 2991,
      "ĠRoman": 2992,
      "ret": 2993,
      "Ġstra": 2994,
      "Ġprofessional": 2995,
      "Ġ\\": 2996,
      "Ġprefer": 2997,
      "inguistic": 2998,
      "venue": 2999,
      "elief": 3000,
      "Ġjud": 3001,
      "Ġdiver": 3002,
      "Ġcharacteristics": 3003,
      "Ġmicro": 3004,
      "ĠInter": 3005,
      "Ġart": 3006,
      "Ġep": 3007,
      "Ġtour": 3008,
      "unc": 3009,
      "Ġinsufficient": 3010,
      "ĠLike": 3011,
      "ĠCo": 3012,
      "utri": 3013,
      "ĠGu": 3014,
      "nal": 3015,
      "ohn": 3016,
      "orse": 3017,
      "Ġisol": 3018,
      "Ġrequiring": 3019,
      "Ġcounter": 3020,
      "Ġet": 3021,
      "ĠPost": 3022,
      "sions": 3023,
      "Ġindependent": 3024,
      "ores": 3025,
      "Ġproviding": 3026,
      "Al": 3027,
      "Ġhaving": 3028,
      "Ġadditional": 3029,
      "Ġcontain": 3030,
      "riter": 3031,
      "Ġbelie": 3032,
      "jection": 3033,
      "Ġteam": 3034,
      "Ġflex": 3035,
      "ray": 3036,
      "Ġimmediate": 3037,
      "Ġrecords": 3038,
      "Ġoccurs": 3039,
      "Ġdecline": 3040,
      "Ġcampaign": 3041,
      "Ġlate": 3042,
      "ensus": 3043,
      "Ġreve": 3044,
      "Ġtrue": 3045,
      "If": 3046,
      "oint": 3047,
      "ĠDecomposition": 3048,
      "Res": 3049,
      "ricultural": 3050,
      "apy": 3051,
      "ert": 3052,
      "Ġhome": 3053,
      "ulated": 3054,
      "ultim": 3055,
      "ĠDi": 3056,
      "itable": 3057,
      "Ġ30": 3058,
      "ĠCheck": 3059,
      "cepts": 3060,
      "oming": 3061,
      "Ġresource": 3062,
      "When": 3063,
      "Ġaccurate": 3064,
      "rete": 3065,
      "Ġ13": 3066,
      "olitical": 3067,
      "hood": 3068,
      "Ġcomplic": 3069,
      "Ġacknowled": 3070,
      "Ġworking": 3071,
      "Ġdecisions": 3072,
      "Ġste": 3073,
      "Ġtraining": 3074,
      "ĠMost": 3075,
      "Ġking": 3076,
      "oking": 3077,
      "Ġcapabilities": 3078,
      "Ġteach": 3079,
      "Ġbehavioral": 3080,
      "Ġalone": 3081,
      "Ġrati": 3082,
      "ophistic": 3083,
      "Ġdocumentation": 3084,
      "Ġsituation": 3085,
      "Ġfurther": 3086,
      "ĠBy": 3087,
      "Ġintervention": 3088,
      "reek": 3089,
      "\",": 3090,
      "Ġcities": 3091,
      "sib": 3092,
      "Ġhead": 3093,
      "Ġpsychological": 3094,
      "Logical": 3095,
      "Ġparty": 3096,
      "Ġheav": 3097,
      "Ġcondition": 3098,
      "25": 3099,
      "orthern": 3100,
      "ĠMon": 3101,
      "jective": 3102,
      "lied": 3103,
      "Ġexplain": 3104,
      "Ġsignificance": 3105,
      "bit": 3106,
      "Ġerror": 3107,
      "Ġunderlying": 3108,
      "arket": 3109,
      "Ġservices": 3110,
      "ĠMar": 3111,
      "tee": 3112,
      "ĠWorld": 3113,
      "atom": 3114,
      "outhern": 3115,
      "ĠChallen": 3116,
      "Ġprotocols": 3117,
      "ĠCent": 3118,
      "ĠIndividual": 3119,
      "Ġcommunication": 3120,
      "Ġsmaller": 3121,
      "ĠLimitations": 3122,
      "Ġhard": 3123,
      "Ġinnovation": 3124,
      "light": 3125,
      "Ġregular": 3126,
      "Ġexpect": 3127,
      "Ġdomestic": 3128,
      "ĠChris": 3129,
      "gorith": 3130,
      "Ġdimension": 3131,
      "itial": 3132,
      "Ġinstit": 3133,
      "Ġmatters": 3134,
      "making": 3135,
      "Ġspread": 3136,
      "Ġapproxim": 3137,
      "Ġdual": 3138,
      "Ġfem": 3139,
      "Ġdivision": 3140,
      "udicial": 3141,
      "ĠGeneral": 3142,
      "Ġox": 3143,
      "ĠConf": 3144,
      "ĠTechnical": 3145,
      "urred": 3146,
      "ching": 3147,
      "Ġterminology": 3148,
      "Ġrules": 3149,
      "Ġdigital": 3150,
      "Ġleadership": 3151,
      "gyp": 3152,
      "nam": 3153,
      "Ġpartn": 3154,
      "Ġopportun": 3155,
      "Ġguid": 3156,
      "lim": 3157,
      "Ġdays": 3158,
      "ĠArab": 3159,
      "irth": 3160,
      "cont": 3161,
      "Ġconsistent": 3162,
      "iving": 3163,
      "Ġvolume": 3164,
      "idation": 3165,
      "aren": 3166,
      "tility": 3167,
      "Ġcommunities": 3168,
      "ming": 3169,
      "Ġred": 3170,
      "ĠTe": 3171,
      "Ġenvironments": 3172,
      "Ġpositioning": 3173,
      "Ġshifts": 3174,
      "lig": 3175,
      "inguish": 3176,
      "13": 3177,
      "ĠPe": 3178,
      "Breaking": 3179,
      "Ġdistrib": 3180,
      "Ġfigures": 3181,
      "Ġsophistic": 3182,
      "ructural": 3183,
      "Ġpredict": 3184,
      "Ġful": 3185,
      "Ġincor": 3186,
      "Ġmatter": 3187,
      "Ġscience": 3188,
      "Ġlonger": 3189,
      "Ġdeep": 3190,
      "ĠKnowledge": 3191,
      "Ġ<": 3192,
      "Ġasking": 3193,
      "Ġmaterials": 3194,
      "Ġcircumst": 3195,
      "ĠCannot": 3196,
      "Ġrun": 3197,
      "ĠCong": 3198,
      "ured": 3199,
      "Ġemer": 3200,
      "pect": 3201,
      "Ġlandscape": 3202,
      "ĠTriangulation": 3203,
      "encing": 3204,
      "ĠKing": 3205,
      "Ġdensity": 3206,
      "Ġcenter": 3207,
      "ĠPotential": 3208,
      "Ġmach": 3209,
      "ĠInf": 3210,
      "ocal": 3211,
      "dro": 3212,
      "acc": 3213,
      "rance": 3214,
      "Ġconcepts": 3215,
      "Ġappe": 3216,
      "Ġpos": 3217,
      "most": 3218,
      "Ġcompound": 3219,
      "ĠGe": 3220,
      "Ġseason": 3221,
      "Ġsubstantial": 3222,
      "Ġeffectively": 3223,
      "Ġprograms": 3224,
      "Ġarchitecture": 3225,
      "Ġday": 3226,
      "risis": 3227,
      "Ġbelief": 3228,
      "Ġlogical": 3229,
      "Ġunits": 3230,
      "Ġseparation": 3231,
      "oes": 3232,
      "Ġliber": 3233,
      "Ġpositions": 3234,
      "utive": 3235,
      "ĠClass": 3236,
      "ĠStrategic": 3237,
      "Ġrelated": 3238,
      "Ġcausation": 3239,
      "Ġbro": 3240,
      "Ġgreat": 3241,
      "amb": 3242,
      "Ġconcerns": 3243,
      "Ġearlier": 3244,
      "ĠRetrieval": 3245,
      "Ġdipl": 3246,
      "ned": 3247,
      "igen": 3248,
      "Ġcontinuous": 3249,
      "Ġsal": 3250,
      "Ġfinal": 3251,
      "ours": 3252,
      "Ġperman": 3253,
      "Ġphilosophical": 3254,
      "ĠAfrican": 3255,
      "Ġdr": 3256,
      "Ġgradual": 3257,
      "Ġprivate": 3258,
      "Ġconduc": 3259,
      "aced": 3260,
      "Ġexactly": 3261,
      "zed": 3262,
      "Ġcat": 3263,
      "Ġcircumstances": 3264,
      "Ġface": 3265,
      "Ġ50": 3266,
      "ĠCross": 3267,
      "Ġnegative": 3268,
      "Ġir": 3269,
      "Ġsociety": 3270,
      "olute": 3271,
      "Ġsymptoms": 3272,
      "ng": 3273,
      "ĠSm": 3274,
      "Ġtechnological": 3275,
      "Ġorganization": 3276,
      "anies": 3277,
      "atin": 3278,
      "Ġvers": 3279,
      "Ġspiritual": 3280,
      "Ġincreases": 3281,
      "Ġserves": 3282,
      "ĠCurrent": 3283,
      "Ġprediction": 3284,
      "Ġbenefit": 3285,
      "Ġlet": 3286,
      "Ġprice": 3287,
      "inding": 3288,
      "ada": 3289,
      "Ġshared": 3290,
      "Ġbaseline": 3291,
      "Ġpercent": 3292,
      "Ġsustain": 3293,
      "Ġshap": 3294,
      "selves": 3295,
      "ley": 3296,
      "raft": 3297,
      "Ġchain": 3298,
      "Ġcontrast": 3299,
      "Ġflu": 3300,
      "ĠMo": 3301,
      "Ġdescribed": 3302,
      "gence": 3303,
      "ney": 3304,
      "Ġimper": 3305,
      "Ġinvolve": 3306,
      "rest": 3307,
      "Ġactive": 3308,
      "Ġexposure": 3309,
      "ĠMus": 3310,
      "Ġcenturies": 3311,
      "Ġtask": 3312,
      "Ġultim": 3313,
      "Ġparam": 3314,
      "Ġchann": 3315,
      "Ġsometimes": 3316,
      "Ġopen": 3317,
      "ĠCourt": 3318,
      "Ġalternative": 3319,
      "ĠInternational": 3320,
      "pects": 3321,
      "entic": 3322,
      "ĠTimeline": 3323,
      "ifest": 3324,
      "aper": 3325,
      "Ġgeomet": 3326,
      "uter": 3327,
      "rix": 3328,
      "Ġnarrative": 3329,
      "ausal": 3330,
      "ĠAll": 3331,
      "Ġsexual": 3332,
      "Ġtrac": 3333,
      "Ġacces": 3334,
      "rying": 3335,
      "Ġattempt": 3336,
      "Ġindependence": 3337,
      "Ġstep": 3338,
      "ridge": 3339,
      "Ġprecedent": 3340,
      "rust": 3341,
      "ĠNational": 3342,
      "Ġphysics": 3343,
      "Ġresid": 3344,
      "Ġtrajectory": 3345,
      "Ġacademic": 3346,
      "ĠDist": 3347,
      "Ġsevere": 3348,
      "Ġinstitutions": 3349,
      "Ġpositive": 3350,
      "lative": 3351,
      "Ġanim": 3352,
      "Ġanaly": 3353,
      "Ġsuperior": 3354,
      "known": 3355,
      "ps": 3356,
      "Ġ[": 3357,
      "Ġcomprom": 3358,
      "Ġinstru": 3359,
      "Ġmotiv": 3360,
      "Ġfigure": 3361,
      "Ġpast": 3362,
      "Ġrepresented": 3363,
      "90": 3364,
      "ara": 3365,
      "Ġsupply": 3366,
      "Ġdomain": 3367,
      "Ġmeasures": 3368,
      "Ġbiological": 3369,
      "ĠArch": 3370,
      "placement": 3371,
      "Ġmoment": 3372,
      "Ġcop": 3373,
      "aged": 3374,
      "Ġclar": 3375,
      "Ġcontinuity": 3376,
      "Ġtesting": 3377,
      "Ġinteractions": 3378,
      "ino": 3379,
      "Ġdefinition": 3380,
      "aves": 3381,
      "Ġcriter": 3382,
      "aring": 3383,
      "Ġartistic": 3384,
      "utic": 3385,
      "Ġtoo": 3386,
      "icit": 3387,
      "Ġlab": 3388,
      "Ġconstant": 3389,
      "Ġschool": 3390,
      "pirical": 3391,
      "Ġthemselves": 3392,
      "Ġtherm": 3393,
      "Ġtravel": 3394,
      "Ġambigu": 3395,
      "Ġmethodology": 3396,
      "Ġcoordination": 3397,
      "Ġidentified": 3398,
      "going": 3399,
      "atform": 3400,
      "change": 3401,
      "Ġpeak": 3402,
      "Ġdetermine": 3403,
      "rong": 3404,
      "upp": 3405,
      "rad": 3406,
      "Ġplan": 3407,
      "Ġforeign": 3408,
      "ĠFin": 3409,
      "Ġtools": 3410,
      "ĠEarth": 3411,
      "Ġdecre": 3412,
      "Ġwide": 3413,
      "Ġtac": 3414,
      "Ġtake": 3415,
      "ĠEgyp": 3416,
      "Ġ100": 3417,
      "Ġpoor": 3418,
      "Ġcolor": 3419,
      "plication": 3420,
      "apeutic": 3421,
      "Ġincomplete": 3422,
      "ply": 3423,
      "Ġdetection": 3424,
      "sim": 3425,
      "ĠJohn": 3426,
      "Ġmovements": 3427,
      "Ġeconomy": 3428,
      "Ġoccurred": 3429,
      "Ġil": 3430,
      "Ġalgorith": 3431,
      "ĠNorth": 3432,
      "Ġphilosophy": 3433,
      "Ġfalse": 3434,
      "thetic": 3435,
      "bre": 3436,
      "Ġinfluenced": 3437,
      "Ġmoney": 3438,
      "Ġgreater": 3439,
      "aily": 3440,
      "Ġdiversity": 3441,
      "allel": 3442,
      "Ġpay": 3443,
      "Ġnorm": 3444,
      "Im": 3445,
      "Reg": 3446,
      "denti": 3447,
      "Ġseeking": 3448,
      "Ġoccup": 3449,
      "Ġmention": 3450,
      "ugust": 3451,
      "Ġcorrelation": 3452,
      "Ġdominance": 3453,
      "Ġlit": 3454,
      "ĠRepublic": 3455,
      "coh": 3456,
      "Ġwind": 3457,
      "Ġparts": 3458,
      "mation": 3459,
      "Ġprogression": 3460,
      "Ġobservation": 3461,
      "son": 3462,
      "Ġmassive": 3463,
      "Ġresolution": 3464,
      "Ġsurve": 3465,
      "ĠIndian": 3466,
      "Timeline": 3467,
      "ee": 3468,
      "Ġgeographic": 3469,
      "aeological": 3470,
      "alf": 3471,
      "Ġdistance": 3472,
      "Ġdivid": 3473,
      "self": 3474,
      "though": 3475,
      "Ġdefic": 3476,
      "Ġelev": 3477,
      "ystem": 3478,
      "Ġpow": 3479,
      "etary": 3480,
      "ĠAg": 3481,
      "Ġwealth": 3482,
      "Ġconsumption": 3483,
      "Ġassociated": 3484,
      "oll": 3485,
      "iform": 3486,
      "Ġimpacts": 3487,
      "Ġdistinguish": 3488,
      "ene": 3489,
      "Ġoptimal": 3490,
      "edi": 3491,
      "unction": 3492,
      "elling": 3493,
      "Ġmonit": 3494,
      "ptions": 3495,
      "Ġexplanation": 3496,
      "ĠUnc": 3497,
      "Ġvisual": 3498,
      "Historical": 3499,
      "ott": 3500,
      "Ġimportance": 3501,
      "cer": 3502,
      "pecially": 3503,
      "ĠFirst": 3504,
      "ĠPat": 3505,
      "Ġoverall": 3506,
      "ove": 3507,
      "Ġsense": 3508,
      "ĠGreek": 3509,
      "Ġaffects": 3510,
      "uit": 3511,
      "Ġchemical": 3512,
      "Ġlies": 3513,
      "ĠPop": 3514,
      "Ġcareer": 3515,
      "Ġhold": 3516,
      "esearch": 3517,
      "Ġrare": 3518,
      "ĠAcknowledge": 3519,
      "ĠHow": 3520,
      "Ġassess": 3521,
      "Ġinitially": 3522,
      "Ġterritory": 3523,
      "iec": 3524,
      "uel": 3525,
      "Ġthings": 3526,
      "ĠTwo": 3527,
      "Ġang": 3528,
      "Ġagree": 3529,
      "Ġresponses": 3530,
      "Ġoutcome": 3531,
      "Ġhypo": 3532,
      "ana": 3533,
      "olicy": 3534,
      "Ġmanufact": 3535,
      "ĠIslamic": 3536,
      "ĠPers": 3537,
      "tenance": 3538,
      "Ġhere": 3539,
      "Ġlinguistic": 3540,
      "Ġquite": 3541,
      "Ġheat": 3542,
      "liance": 3543,
      "atically": 3544,
      "Ġstatistical": 3545,
      "Sim": 3546,
      "Ġturn": 3547,
      "Ġconsequences": 3548,
      "Ġdram": 3549,
      "Ġfram": 3550,
      "Ġdisruption": 3551,
      "Ġnecessity": 3552,
      "Ġcritic": 3553,
      "Ġextensive": 3554,
      "rical": 3555,
      "Ġtool": 3556,
      "Ġoil": 3557,
      "ster": 3558,
      "att": 3559,
      "Ġproduce": 3560,
      "abit": 3561,
      "Ġexplicit": 3562,
      "Ġintegr": 3563,
      "Ġfish": 3564,
      "ĠFinal": 3565,
      "vironmental": 3566,
      "```": 3567,
      "ĠChristian": 3568,
      "ĠIndia": 3569,
      "Ġfrequency": 3570,
      "ĠDef": 3571,
      "Ġla": 3572,
      "uty": 3573,
      "orders": 3574,
      "Ġroles": 3575,
      "Ġphase": 3576,
      "dict": 3577,
      "by": 3578,
      "Parse": 3579,
      "amm": 3580,
      "Ġregarding": 3581,
      "Ġlength": 3582,
      "Ġclose": 3583,
      "Ġconsistency": 3584,
      "care": 3585,
      "Ġrecon": 3586,
      "Ġrecovery": 3587,
      "eng": 3588,
      "asons": 3589,
      "ffic": 3590,
      "Ġphot": 3591,
      "Ġlanguages": 3592,
      "Ġhierarchy": 3593,
      "Ġsus": 3594,
      "Ġthought": 3595,
      "Ġport": 3596,
      "Ġdrug": 3597,
      "Ġtrust": 3598,
      "Ġessentially": 3599,
      "Ġmer": 3600,
      "ĠBas": 3601,
      "aph": 3602,
      "Information": 3603,
      "ĠProt": 3604,
      "ont": 3605,
      "ids": 3606,
      "andom": 3607,
      "Ġinters": 3608,
      "pe": 3609,
      "ĠInc": 3610,
      "Ġliterary": 3611,
      "Ġcycle": 3612,
      "Ġwant": 3613,
      "Ġcer": 3614,
      "Ġperspective": 3615,
      "iver": 3616,
      "rimary": 3617,
      "Ġschools": 3618,
      "II": 3619,
      "Ġside": 3620,
      "ĠPr": 3621,
      "oft": 3622,
      "Ġoffic": 3623,
      "Ġcoordin": 3624,
      "Ġfind": 3625,
      "Ġminim": 3626,
      "Ġtrig": 3627,
      "ĠIdenti": 3628,
      "ĠGl": 3629,
      "Ġsomething": 3630,
      "ky": 3631,
      "Ġrig": 3632,
      "ĠAcc": 3633,
      "rupt": 3634,
      "co": 3635,
      "right": 3636,
      "Ġhouse": 3637,
      "Ġprov": 3638,
      "Ġregulation": 3639,
      "Ġarrange": 3640,
      "Ġmetab": 3641,
      "Ġaverage": 3642,
      "Ġsensi": 3643,
      "Ġrepresentation": 3644,
      "Ar": 3645,
      "Ġfer": 3646,
      "Ġsuff": 3647,
      "Ġprevious": 3648,
      "Ġconcentration": 3649,
      "11": 3650,
      "just": 3651,
      "ĠRo": 3652,
      "ellig": 3653,
      "Ġparadox": 3654,
      "inning": 3655,
      "Ġtw": 3656,
      "Ġtransl": 3657,
      "Ġcompany": 3658,
      "Ġcompanies": 3659,
      "ĠGod": 3660,
      "Ġoperates": 3661,
      "Ġexamples": 3662,
      "Ġreference": 3663,
      "ĠBo": 3664,
      "Ġshare": 3665,
      "bs": 3666,
      "sec": 3667,
      "iles": 3668,
      "Ġstable": 3669,
      "Ġleading": 3670,
      "Ġabsolute": 3671,
      "Ġfully": 3672,
      "Ad": 3673,
      "isk": 3674,
      "Ġconfl": 3675,
      "atial": 3676,
      "equ": 3677,
      "Ġi": 3678,
      "Ġthinking": 3679,
      "Ġonce": 3680,
      "ĠReal": 3681,
      "Ġproducts": 3682,
      "Ġlocation": 3683,
      "Ġfeatures": 3684,
      "Ġbook": 3685,
      "Ġdoctrine": 3686,
      "Ġsubsequ": 3687,
      "Ġdemographic": 3688,
      "Ġscholars": 3689,
      "uk": 3690,
      "Ġmut": 3691,
      "Ġeducational": 3692,
      "Cross": 3693,
      "ĠAv": 3694,
      "ads": 3695,
      "Ġseen": 3696,
      "Ġconfirmed": 3697,
      "ĠMethod": 3698,
      "odes": 3699,
      "Ġwee": 3700,
      "Ġopposition": 3701,
      "oles": 3702,
      "Ġstuff": 3703,
      "ban": 3704,
      "Ġdivine": 3705,
      "Ġtiss": 3706,
      "Ġtend": 3707,
      "Ġalways": 3708,
      "ĠCommun": 3709,
      "Ġinterests": 3710,
      "ulative": 3711,
      "Ġ190": 3712,
      "mic": 3713,
      "ĠFrance": 3714,
      "Ġkm": 3715,
      "Ġfavor": 3716,
      "ground": 3717,
      "Ġaudi": 3718,
      "ĠSw": 3719,
      "osis": 3720,
      "ĠConclusion": 3721,
      "Ġagg": 3722,
      "vestig": 3723,
      "Ġsequence": 3724,
      "ĠRussian": 3725,
      "eth": 3726,
      "Ġsolution": 3727,
      "Ġconnections": 3728,
      "Ġavailability": 3729,
      "Ġusually": 3730,
      "oly": 3731,
      "unt": 3732,
      "ĠLong": 3733,
      "Ġelimin": 3734,
      "ĠEmpire": 3735,
      "Ġincome": 3736,
      "ĠBCE": 3737,
      "pers": 3738,
      "Ġtou": 3739,
      "ĠPath": 3740,
      "struction": 3741,
      "Ġexplo": 3742,
      "tt": 3743,
      "Ġrein": 3744,
      "Ġ195": 3745,
      "Ġmajority": 3746,
      "ologies": 3747,
      "eper": 3748,
      "nic": 3749,
      "Ġmar": 3750,
      "Ġroc": 3751,
      "Ġmonths": 3752,
      "Ind": 3753,
      "brid": 3754,
      "ĠAI": 3755,
      "Ġnecessarily": 3756,
      "omer": 3757,
      "ift": 3758,
      "fare": 3759,
      "eb": 3760,
      "level": 3761,
      "Ġprovision": 3762,
      "Ġsufficient": 3763,
      "Ġactivities": 3764,
      "Ġappropriate": 3765,
      "oks": 3766,
      "ards": 3767,
      "ĠThere": 3768,
      "ctions": 3769,
      "ĠAugust": 3770,
      "Ġexclu": 3771,
      "Ġord": 3772,
      "aste": 3773,
      "work": 3774,
      "Ġdecades": 3775,
      "Ġachieve": 3776,
      "ĠAfrica": 3777,
      "100": 3778,
      "Current": 3779,
      "Ġdeveloping": 3780,
      "Ġclassical": 3781,
      "Ġmechanical": 3782,
      "Ġbarriers": 3783,
      "Ġpermanent": 3784,
      "Ġcriteria": 3785,
      "pts": 3786,
      "aran": 3787,
      "odies": 3788,
      "ĠMod": 3789,
      "Ġproduct": 3790,
      "cal": 3791,
      "Ġmess": 3792,
      "ĠSemantic": 3793,
      "Ġsqu": 3794,
      "Ġphysi": 3795,
      "ĠCath": 3796,
      "Ġimpl": 3797,
      "Ġcareful": 3798,
      "ĠPort": 3799,
      "Ġacqu": 3800,
      "Ġetc": 3801,
      "rors": 3802,
      "une": 3803,
      "Ġperfect": 3804,
      "Ġheart": 3805,
      "Ġmechanics": 3806,
      "Ġcitiz": 3807,
      "oler": 3808,
      "Ġnever": 3809,
      "ĠRegional": 3810,
      "ĠOther": 3811,
      "Ġvariable": 3812,
      "Ġauthentic": 3813,
      "ministrative": 3814,
      "aff": 3815,
      "edom": 3816,
      "Ġhighly": 3817,
      "ĠTraditional": 3818,
      "Ġnutri": 3819,
      "Ġallowed": 3820,
      "Ġprocedures": 3821,
      "Ġfall": 3822,
      "Ġserved": 3823,
      "ĠCE": 3824,
      "...*": 3825,
      "Ġnovel": 3826,
      "Ġcrisis": 3827,
      "ĠFran": 3828,
      "Ġapparent": 3829,
      "Ġcontrolled": 3830,
      "Ġseries": 3831,
      "br": 3832,
      "lia": 3833,
      "Ġdiverse": 3834,
      "ĠCongress": 3835,
      "Ġengineering": 3836,
      "respon": 3837,
      "set": 3838,
      "rian": 3839,
      "ĠEarly": 3840,
      "Ġinvolving": 3841,
      "Ġongoing": 3842,
      "Ġuses": 3843,
      "Ġconstit": 3844,
      "Ġequal": 3845,
      "Ġprotein": 3846,
      "cohol": 3847,
      "illed": 3848,
      "Ġcombination": 3849,
      "lies": 3850,
      "Ġmission": 3851,
      "Ġbest": 3852,
      "^{": 3853,
      "Ġactions": 3854,
      "Ġpoli": 3855,
      "ĠChar": 3856,
      "Ġreview": 3857,
      "Ġtypical": 3858,
      "Ġuncertain": 3859,
      "Ġlargest": 3860,
      "ĠUniversity": 3861,
      "uine": 3862,
      "Ġcollection": 3863,
      "ancing": 3864,
      "Ġfeel": 3865,
      "Ġparticipation": 3866,
      "Ġtrib": 3867,
      "ugg": 3868,
      "Ġpatients": 3869,
      "och": 3870,
      "Ġidentification": 3871,
      "Ġpremise": 3872,
      "sign": 3873,
      "istry": 3874,
      "Ġcategories": 3875,
      "Ġaway": 3876,
      "Ġcut": 3877,
      "ocu": 3878,
      "Ġreproduc": 3879,
      "Trans": 3880,
      "Yes": 3881,
      "anking": 3882,
      "Ġmusc": 3883,
      "Ġevolved": 3884,
      "nder": 3885,
      "Ġhom": 3886,
      "Ġallocation": 3887,
      "Ġmaintained": 3888,
      "Ġobjects": 3889,
      "Ġespecially": 3890,
      "Ġcomputational": 3891,
      "Ġeas": 3892,
      "ules": 3893,
      "ellect": 3894,
      "Ġtherapy": 3895,
      "Ġ25": 3896,
      "ĠGovern": 3897,
      "Ġcauses": 3898,
      "Ġcycles": 3899,
      "So": 3900,
      "ressed": 3901,
      "ises": 3902,
      "ĠCar": 3903,
      "Ġcombined": 3904,
      "math": 3905,
      "mosph": 3906,
      "oor": 3907,
      "Ġaddition": 3908,
      "Ġminor": 3909,
      "inu": 3910,
      "Ġpred": 3911,
      "Ġdemonstrates": 3912,
      "Ġstory": 3913,
      "Ġcontradiction": 3914,
      "Ġinvestig": 3915,
      "Ġlines": 3916,
      "osystem": 3917,
      "Ġdyn": 3918,
      "Ġhon": 3919,
      "Ġadministration": 3920,
      "Ġsaw": 3921,
      "Ġwhite": 3922,
      "Ġvalu": 3923,
      "hop": 3924,
      "zation": 3925,
      "Ġcul": 3926,
      "ading": 3927,
      "Ġagricultural": 3928,
      "Ġregardless": 3929,
      "Ġpublished": 3930,
      "Ġbirth": 3931,
      "Ġrevenue": 3932,
      "ames": 3933,
      "ĠStandard": 3934,
      "Ġhydro": 3935,
      "Ġwritten": 3936,
      "aul": 3937,
      "ortion": 3938,
      "eters": 3939,
      "Ġmaintenance": 3940,
      "Ġanimals": 3941,
      "Ġapplied": 3942,
      "ĠAmerica": 3943,
      "anic": 3944,
      "cell": 3945,
      "ĠDes": 3946,
      "Ġcompletely": 3947,
      "No": 3948,
      "otic": 3949,
      "Ġspeech": 3950,
      "usal": 3951,
      "ĠMilitary": 3952,
      "ustrial": 3953,
      "ĠInstitutional": 3954,
      "cultural": 3955,
      "emory": 3956,
      "amin": 3957,
      "ĠPri": 3958,
      "Ġ40": 3959,
      "Ġsimply": 3960,
      "Ġsophisticated": 3961,
      "Ġunit": 3962,
      "Ġorganizational": 3963,
      "Ġmixed": 3964,
      "Ġsolutions": 3965,
      "Ġbuilt": 3966,
      "Ġmarriage": 3967,
      "alian": 3968,
      "ĠCre": 3969,
      "Ġestablishment": 3970,
      "Ġfinding": 3971,
      "Ġdebt": 3972,
      "Ġcame": 3973,
      "Ġgender": 3974,
      "ĠWest": 3975,
      "cil": 3976,
      "Ġupon": 3977,
      "Multi": 3978,
      "Ġrac": 3979,
      "Ġthing": 3980,
      "Ġcarb": 3981,
      "war": 3982,
      "eric": 3983,
      "Ġparallel": 3984,
      "ĠClinical": 3985,
      "Ġstyle": 3986,
      "Ġliving": 3987,
      "Ġplants": 3988,
      "Ġgrav": 3989,
      "ĠRegulatory": 3990,
      "Ġsustained": 3991,
      "Ġultimately": 3992,
      "asion": 3993,
      "tially": 3994,
      "Ġcomposition": 3995,
      "ump": 3996,
      "asty": 3997,
      "ype": 3998,
      "Ġgene": 3999,
      "Ġmolecular": 4000,
      "Ġpartnership": 4001,
      "inite": 4002,
      "Ġsatis": 4003,
      "Ġvalidity": 4004,
      "metry": 4005,
      "Ġincorpor": 4006,
      "Ġpowers": 4007,
      "Ġhours": 4008,
      "Ġcontains": 4009,
      "ĠMedical": 4010,
      "orb": 4011,
      "Ġinj": 4012,
      "endment": 4013,
      "apse": 4014,
      "Ġeconom": 4015,
      "Ġautom": 4016,
      "Ġmount": 4017,
      "Ġgenuine": 4018,
      "anguage": 4019,
      "uses": 4020,
      "Ġengagement": 4021,
      "reen": 4022,
      "Ġmarg": 4023,
      "Ġanatom": 4024,
      "Ġleft": 4025,
      "Ġquery": 4026,
      "Ġexperiences": 4027,
      "unctional": 4028,
      "Ġdescri": 4029,
      "com": 4030,
      "Ġcompliance": 4031,
      "Ġchallenging": 4032,
      "Ġenab": 4033,
      "Ġjudicial": 4034,
      "Ġrelatively": 4035,
      "Ġhistor": 4036,
      "ama": 4037,
      "ĠMissing": 4038,
      "ĠFederal": 4039,
      "Ġallowing": 4040,
      "Ġjob": 4041,
      "ĠProblem": 4042,
      "enn": 4043,
      "Ġclu": 4044,
      "used": 4045,
      "Ġtherapeutic": 4046,
      "oot": 4047,
      "ste": 4048,
      "Ġoverl": 4049,
      "Ġflexibility": 4050,
      "ds": 4051,
      "Ġsetting": 4052,
      "Ġimmune": 4053,
      "attle": 4054,
      "resent": 4055,
      "Ġconscious": 4056,
      "rote": 4057,
      "Ġusage": 4058,
      "Ġphra": 4059,
      "Ġconsol": 4060,
      "cast": 4061,
      "Ġsites": 4062,
      "arc": 4063,
      "Ġexchange": 4064,
      "ĠEven": 4065,
      "Ġmatrix": 4066,
      "Ġassumption": 4067,
      "Ġnear": 4068,
      "Ġplatform": 4069,
      "ĠDet": 4070,
      "Ġimm": 4071,
      "Ġpsychology": 4072,
      "ellectual": 4073,
      "ler": 4074,
      "mark": 4075,
      "ĠSen": 4076,
      "ĠMet": 4077,
      "Ġmarkers": 4078,
      "Ġdepth": 4079,
      "hav": 4080,
      "Ġproject": 4081,
      "ta": 4082,
      "Ġdou": 4083,
      "Ġpartial": 4084,
      "Ġrecent": 4085,
      "ĠBlack": 4086,
      "Ġreb": 4087,
      "Ġoperate": 4088,
      "ĠHouse": 4089,
      "ished": 4090,
      "Ġmedic": 4091,
      "Ġwarfare": 4092,
      "ĠSub": 4093,
      "ĠTreat": 4094,
      "Ġcardi": 4095
    },
    "merges": [
      [
        "č",
        "Ċ"
      ],
      [
        "o",
        "n"
      ],
      [
        "i",
        "n"
      ],
      [
        "t",
        "i"
      ],
      [
        "e",
        "r"
      ],
      [
        "Ġ",
        "t"
      ],
      [
        "Ġ",
        "a"
      ],
      [
        "r",
        "e"
      ],
      [
        "a",
        "l"
      ],
      [
        "e",
        "n"
      ],
      [
        "Ġ",
        "c"
      ],
      [
        "e",
        "s"
      ],
      [
        "Ġ",
        "s"
      ],
      [
        "Ġt",
        "h"
      ],
      [
        "o",
        "r"
      ],
      [
        "ti",
        "on"
      ],
      [
        "a",
        "n"
      ],
      [
        "i",
        "s"
      ],
      [
        "Ġ",
        "p"
      ],
      [
        "i",
        "c"
      ],
      [
        "a",
        "t"
      ],
      [
        "e",
        "d"
      ],
      [
        "a",
        "r"
      ],
      [
        "i",
        "t"
      ],
      [
        "Ġth",
        "e"
      ],
      [
        "in",
        "g"
      ],
      [
        "Ġ",
        "d"
      ],
      [
        "Ġ",
        "m"
      ],
      [
        "Ġ",
        "f"
      ],
      [
        "Ġ",
        "o"
      ],
      [
        "r",
        "o"
      ],
      [
        "Ġ",
        "in"
      ],
      [
        "Ġ",
        "w"
      ],
      [
        "Ġ",
        "b"
      ],
      [
        "l",
        "e"
      ],
      [
        "a",
        "tion"
      ],
      [
        "en",
        "t"
      ],
      [
        "e",
        "c"
      ],
      [
        "n",
        "d"
      ],
      [
        "Ġ",
        "re"
      ],
      [
        "o",
        "m"
      ],
      [
        "s",
        "t"
      ],
      [
        "Ġo",
        "f"
      ],
      [
        "o",
        "u"
      ],
      [
        "Ġ",
        "e"
      ],
      [
        "r",
        "a"
      ],
      [
        "Ġ",
        "h"
      ],
      [
        "o",
        "l"
      ],
      [
        "a",
        "s"
      ],
      [
        "l",
        "y"
      ],
      [
        "c",
        "e"
      ],
      [
        "Ġa",
        "nd"
      ],
      [
        "Ġt",
        "o"
      ],
      [
        "v",
        "e"
      ],
      [
        "Ġ",
        "l"
      ],
      [
        "t",
        "h"
      ],
      [
        "Ġc",
        "on"
      ],
      [
        "Ġ",
        "n"
      ],
      [
        "i",
        "l"
      ],
      [
        "u",
        "l"
      ],
      [
        "s",
        "i"
      ],
      [
        "#",
        "#"
      ],
      [
        "a",
        "c"
      ],
      [
        "m",
        "ent"
      ],
      [
        "Ġ",
        "C"
      ],
      [
        "u",
        "r"
      ],
      [
        "i",
        "m"
      ],
      [
        "*",
        "*"
      ],
      [
        "e",
        "t"
      ],
      [
        "i",
        "g"
      ],
      [
        "i",
        "f"
      ],
      [
        "ti",
        "c"
      ],
      [
        "Ġ",
        "S"
      ],
      [
        "Ġ",
        "T"
      ],
      [
        "i",
        "d"
      ],
      [
        "e",
        "m"
      ],
      [
        "t",
        "er"
      ],
      [
        "it",
        "y"
      ],
      [
        "Ġ",
        "g"
      ],
      [
        "v",
        "er"
      ],
      [
        "e",
        "l"
      ],
      [
        "o",
        "w"
      ],
      [
        "Ġs",
        "t"
      ],
      [
        "ic",
        "al"
      ],
      [
        "Ġ",
        "A"
      ],
      [
        "u",
        "t"
      ],
      [
        "u",
        "s"
      ],
      [
        "Ġ",
        "("
      ],
      [
        "Ġp",
        "ro"
      ],
      [
        "t",
        "s"
      ],
      [
        "h",
        "e"
      ],
      [
        "Ġf",
        "or"
      ],
      [
        "r",
        "i"
      ],
      [
        "u",
        "c"
      ],
      [
        "Ġ",
        "v"
      ],
      [
        "Ġc",
        "om"
      ],
      [
        "at",
        "e"
      ],
      [
        "re",
        "s"
      ],
      [
        "a",
        "b"
      ],
      [
        "a",
        "m"
      ],
      [
        "is",
        "t"
      ],
      [
        "Ġ",
        "P"
      ],
      [
        "u",
        "n"
      ],
      [
        "Ġ",
        "\""
      ],
      [
        "i",
        "r"
      ],
      [
        "q",
        "u"
      ],
      [
        "o",
        "d"
      ],
      [
        "Ġ",
        "čĊ"
      ],
      [
        "o",
        "t"
      ],
      [
        "g",
        "e"
      ],
      [
        "Ġ",
        "1"
      ],
      [
        "Ġa",
        "s"
      ],
      [
        "o",
        "g"
      ],
      [
        "it",
        "h"
      ],
      [
        "Ġ",
        "M"
      ],
      [
        "es",
        "s"
      ],
      [
        "Ġ",
        "I"
      ],
      [
        "Ġw",
        "h"
      ],
      [
        "a",
        "in"
      ],
      [
        "Ġe",
        "x"
      ],
      [
        "o",
        "p"
      ],
      [
        "a",
        "d"
      ],
      [
        "Ġ",
        "is"
      ],
      [
        "c",
        "h"
      ],
      [
        "p",
        "p"
      ],
      [
        "Ġw",
        "ith"
      ],
      [
        "##",
        "#"
      ],
      [
        "u",
        "re"
      ],
      [
        "er",
        "s"
      ],
      [
        "ti",
        "ve"
      ],
      [
        "t",
        "e"
      ],
      [
        "o",
        "s"
      ],
      [
        "'",
        "s"
      ],
      [
        "o",
        "c"
      ],
      [
        "Ġ",
        "H"
      ],
      [
        "Ġ",
        "on"
      ],
      [
        "Ġs",
        "p"
      ],
      [
        "Ġth",
        "at"
      ],
      [
        "Ġcom",
        "p"
      ],
      [
        "Ġb",
        "e"
      ],
      [
        "Ġd",
        "e"
      ],
      [
        "an",
        "d"
      ],
      [
        "Ġ",
        "E"
      ],
      [
        "u",
        "m"
      ],
      [
        "en",
        "ce"
      ],
      [
        "Ġ",
        "B"
      ],
      [
        "ation",
        "s"
      ],
      [
        "o",
        "re"
      ],
      [
        "Ġa",
        "c"
      ],
      [
        "Ġa",
        "n"
      ],
      [
        "Ġ",
        "R"
      ],
      [
        "Ġc",
        "h"
      ],
      [
        "en",
        "d"
      ],
      [
        "a",
        "y"
      ],
      [
        "a",
        "p"
      ],
      [
        "if",
        "ic"
      ],
      [
        "Ġ",
        "r"
      ],
      [
        "Ġa",
        "l"
      ],
      [
        "i",
        "al"
      ],
      [
        "Ġ",
        "D"
      ],
      [
        "d",
        "i"
      ],
      [
        "ig",
        "h"
      ],
      [
        "i",
        "z"
      ],
      [
        "es",
        "t"
      ],
      [
        "Ġ",
        "or"
      ],
      [
        "p",
        "l"
      ],
      [
        "Ġ",
        "L"
      ],
      [
        "ĠT",
        "he"
      ],
      [
        "Ġ",
        "F"
      ],
      [
        "f",
        "f"
      ],
      [
        "ar",
        "y"
      ],
      [
        "g",
        "h"
      ],
      [
        "u",
        "al"
      ],
      [
        "ro",
        "m"
      ],
      [
        "s",
        "e"
      ],
      [
        "k",
        "e"
      ],
      [
        "Ġ",
        "2"
      ],
      [
        "Ġ",
        "N"
      ],
      [
        "Ġs",
        "u"
      ],
      [
        "si",
        "on"
      ],
      [
        "Ġ",
        "="
      ],
      [
        "f",
        "er"
      ],
      [
        "p",
        "er"
      ],
      [
        "i",
        "es"
      ],
      [
        "tic",
        "al"
      ],
      [
        "an",
        "t"
      ],
      [
        "Ġs",
        "y"
      ],
      [
        "an",
        "ce"
      ],
      [
        "tion",
        "s"
      ],
      [
        "ou",
        "r"
      ],
      [
        "Ġ",
        "it"
      ],
      [
        "x",
        "t"
      ],
      [
        "c",
        "t"
      ],
      [
        "u",
        "nd"
      ],
      [
        ".",
        "."
      ],
      [
        "or",
        "m"
      ],
      [
        "ec",
        "h"
      ],
      [
        "in",
        "e"
      ],
      [
        "Ġ",
        "G"
      ],
      [
        "er",
        "e"
      ],
      [
        "Ġsp",
        "ec"
      ],
      [
        "Ġcon",
        "t"
      ],
      [
        "Ġ",
        "im"
      ],
      [
        "en",
        "ti"
      ],
      [
        "Ġf",
        "rom"
      ],
      [
        "or",
        "k"
      ],
      [
        "Ġ",
        "W"
      ],
      [
        "Ġb",
        "y"
      ],
      [
        "y",
        "s"
      ],
      [
        "i",
        "on"
      ],
      [
        "at",
        "h"
      ],
      [
        "e",
        "w"
      ],
      [
        "ol",
        "og"
      ],
      [
        "Ġa",
        "pp"
      ],
      [
        "ti",
        "m"
      ],
      [
        "l",
        "d"
      ],
      [
        "r",
        "an"
      ],
      [
        "Ġa",
        "d"
      ],
      [
        "Ġ",
        "le"
      ],
      [
        "Ġ",
        "un"
      ],
      [
        "Ġ",
        "-"
      ],
      [
        "ou",
        "s"
      ],
      [
        "Ġw",
        "as"
      ],
      [
        "is",
        "m"
      ],
      [
        "i",
        "p"
      ],
      [
        "v",
        "id"
      ],
      [
        "l",
        "u"
      ],
      [
        "Ġa",
        "re"
      ],
      [
        "ac",
        "h"
      ],
      [
        "i",
        "re"
      ],
      [
        "te",
        "xt"
      ],
      [
        "al",
        "l"
      ],
      [
        "u",
        "tion"
      ],
      [
        "Ġs",
        "e"
      ],
      [
        "ec",
        "t"
      ],
      [
        "Ġp",
        "re"
      ],
      [
        "ter",
        "n"
      ],
      [
        "at",
        "ed"
      ],
      [
        "ac",
        "t"
      ],
      [
        "ul",
        "t"
      ],
      [
        "a",
        "ge"
      ],
      [
        "ig",
        "n"
      ],
      [
        "Ġp",
        "ar"
      ],
      [
        "r",
        "uc"
      ],
      [
        "th",
        "er"
      ],
      [
        "o",
        "st"
      ],
      [
        "T",
        "he"
      ],
      [
        "or",
        "y"
      ],
      [
        "p",
        "h"
      ],
      [
        "Ġs",
        "h"
      ],
      [
        "en",
        "c"
      ],
      [
        "a",
        "g"
      ],
      [
        "ur",
        "al"
      ],
      [
        "Ġn",
        "ot"
      ],
      [
        "0",
        "0"
      ],
      [
        "Ġa",
        "b"
      ],
      [
        "Ġ",
        "y"
      ],
      [
        "Ġb",
        "ut"
      ],
      [
        "is",
        "h"
      ],
      [
        "p",
        "le"
      ],
      [
        "Ġm",
        "e"
      ],
      [
        "ro",
        "u"
      ],
      [
        "or",
        "t"
      ],
      [
        "ou",
        "t"
      ],
      [
        "at",
        "es"
      ],
      [
        "st",
        "em"
      ],
      [
        "ĠT",
        "h"
      ],
      [
        "Ġl",
        "i"
      ],
      [
        "Ġre",
        "s"
      ],
      [
        "u",
        "st"
      ],
      [
        "f",
        "orm"
      ],
      [
        "ve",
        "l"
      ],
      [
        "if",
        "fer"
      ],
      [
        "ar",
        "i"
      ],
      [
        "ab",
        "le"
      ],
      [
        "ar",
        "d"
      ],
      [
        "Ġa",
        "t"
      ],
      [
        "a",
        "k"
      ],
      [
        "a",
        "st"
      ],
      [
        "v",
        "en"
      ],
      [
        "Ġp",
        "er"
      ],
      [
        "ĠI",
        "n"
      ],
      [
        "Ġ",
        "U"
      ],
      [
        "ĠC",
        "on"
      ],
      [
        "il",
        "ity"
      ],
      [
        "om",
        "e"
      ],
      [
        "Ġn",
        "e"
      ],
      [
        "Ġ",
        "en"
      ],
      [
        "or",
        "s"
      ],
      [
        ":",
        "**"
      ],
      [
        "Ġc",
        "an"
      ],
      [
        "n",
        "t"
      ],
      [
        "Ġin",
        "c"
      ],
      [
        "Ġ",
        "+"
      ],
      [
        "a",
        "re"
      ],
      [
        "ra",
        "m"
      ],
      [
        "a",
        "v"
      ],
      [
        "Ġsy",
        "stem"
      ],
      [
        "d",
        "e"
      ],
      [
        "b",
        "le"
      ],
      [
        "es",
        "e"
      ],
      [
        "r",
        "ic"
      ],
      [
        "Ġc",
        "l"
      ],
      [
        "ou",
        "ld"
      ],
      [
        "ra",
        "in"
      ],
      [
        "Ġ1",
        "9"
      ],
      [
        "Ġre",
        "l"
      ],
      [
        "a",
        "tive"
      ],
      [
        "an",
        "g"
      ],
      [
        "i",
        "ti"
      ],
      [
        "Ġd",
        "iffer"
      ],
      [
        "Ġd",
        "is"
      ],
      [
        "c",
        "ess"
      ],
      [
        "ic",
        "h"
      ],
      [
        "Ġm",
        "ore"
      ],
      [
        "ation",
        "al"
      ],
      [
        "ra",
        "c"
      ],
      [
        "s",
        "s"
      ],
      [
        "ment",
        "s"
      ],
      [
        "Ġth",
        "is"
      ],
      [
        "Ġa",
        "r"
      ],
      [
        "on",
        "g"
      ],
      [
        "Ġ",
        "k"
      ],
      [
        "**",
        ":"
      ],
      [
        "Ġ",
        "us"
      ],
      [
        "ruc",
        "t"
      ],
      [
        "d",
        "uc"
      ],
      [
        "v",
        "ol"
      ],
      [
        "Ġ",
        "O"
      ],
      [
        "el",
        "l"
      ],
      [
        "Ġh",
        "e"
      ],
      [
        "Ġ",
        "3"
      ],
      [
        "tion",
        "al"
      ],
      [
        "ech",
        "an"
      ],
      [
        "u",
        "e"
      ],
      [
        "er",
        "m"
      ],
      [
        "i",
        "a"
      ],
      [
        "i",
        "le"
      ],
      [
        "Ġre",
        "qu"
      ],
      [
        "Ġin",
        "ter"
      ],
      [
        "il",
        "l"
      ],
      [
        "e",
        "y"
      ],
      [
        "igh",
        "t"
      ],
      [
        "rou",
        "gh"
      ],
      [
        "Ġp",
        "ol"
      ],
      [
        "Ġcomp",
        "le"
      ],
      [
        "Ġ",
        "qu"
      ],
      [
        "Ġspec",
        "ific"
      ],
      [
        "at",
        "er"
      ],
      [
        "y",
        "p"
      ],
      [
        "ran",
        "s"
      ],
      [
        "a",
        "il"
      ],
      [
        "a",
        "ve"
      ],
      [
        "i",
        "v"
      ],
      [
        "e",
        "ar"
      ],
      [
        "Ġe",
        "ff"
      ],
      [
        "Ġim",
        "p"
      ],
      [
        "Ġli",
        "ke"
      ],
      [
        "Ġt",
        "ra"
      ],
      [
        "Ġcon",
        "f"
      ],
      [
        "Ġp",
        "l"
      ],
      [
        "Ġin",
        "t"
      ],
      [
        "Ġ",
        "j"
      ],
      [
        "er",
        "v"
      ],
      [
        "n",
        "ow"
      ],
      [
        "l",
        "ic"
      ],
      [
        "Ġthe",
        "ir"
      ],
      [
        "Ġc",
        "o"
      ],
      [
        "on",
        "om"
      ],
      [
        "Ġ",
        "K"
      ],
      [
        "Ġre",
        "g"
      ],
      [
        "Ġv",
        "s"
      ],
      [
        "f",
        "ic"
      ],
      [
        "ul",
        "ar"
      ],
      [
        "et",
        "w"
      ],
      [
        "ti",
        "t"
      ],
      [
        "Ġp",
        "h"
      ],
      [
        "y",
        "n"
      ],
      [
        "Ġs",
        "c"
      ],
      [
        "a",
        "us"
      ],
      [
        "res",
        "s"
      ],
      [
        "..",
        "."
      ],
      [
        "Ġ",
        "4"
      ],
      [
        "Ġth",
        "an"
      ],
      [
        "er",
        "y"
      ],
      [
        "Ġth",
        "rough"
      ],
      [
        "ou",
        "nd"
      ],
      [
        "olog",
        "ical"
      ],
      [
        "or",
        "d"
      ],
      [
        "Ġcon",
        "s"
      ],
      [
        "Ġre",
        "c"
      ],
      [
        "th",
        "es"
      ],
      [
        "o",
        "f"
      ],
      [
        "Ġwh",
        "ich"
      ],
      [
        "Ġp",
        "o"
      ],
      [
        "t",
        "ain"
      ],
      [
        "ĠC",
        "h"
      ],
      [
        "Ġe",
        "m"
      ],
      [
        "ĠS",
        "t"
      ],
      [
        "Ġcom",
        "m"
      ],
      [
        "al",
        "ly"
      ],
      [
        "Ġb",
        "ec"
      ],
      [
        "Ġas",
        "s"
      ],
      [
        "Ġ",
        "und"
      ],
      [
        "as",
        "e"
      ],
      [
        "Ġm",
        "od"
      ],
      [
        "am",
        "e"
      ],
      [
        "t",
        "y"
      ],
      [
        "Q",
        "u"
      ],
      [
        "Ġapp",
        "ro"
      ],
      [
        "c",
        "es"
      ],
      [
        "Ġ",
        "V"
      ],
      [
        "ent",
        "s"
      ],
      [
        "Ġc",
        "re"
      ],
      [
        "thes",
        "is"
      ],
      [
        "Ġre",
        "p"
      ],
      [
        "Ġd",
        "ist"
      ],
      [
        "d",
        "ic"
      ],
      [
        "Ġab",
        "out"
      ],
      [
        "ĠTh",
        "is"
      ],
      [
        "l",
        "ow"
      ],
      [
        "echan",
        "ism"
      ],
      [
        "as",
        "s"
      ],
      [
        "im",
        "it"
      ],
      [
        "r",
        "y"
      ],
      [
        "u",
        "b"
      ],
      [
        "c",
        "tion"
      ],
      [
        "Ġin",
        "f"
      ],
      [
        "al",
        "ys"
      ],
      [
        "Ġ",
        "5"
      ],
      [
        "Ġh",
        "is"
      ],
      [
        "Ġo",
        "ver"
      ],
      [
        "i",
        "an"
      ],
      [
        "Ġg",
        "en"
      ],
      [
        "Ġcon",
        "st"
      ],
      [
        "alys",
        "is"
      ],
      [
        "p",
        "t"
      ],
      [
        "h",
        "ip"
      ],
      [
        "Ġh",
        "ave"
      ],
      [
        "o",
        "th"
      ],
      [
        "ri",
        "b"
      ],
      [
        "Ġund",
        "er"
      ],
      [
        "Ġt",
        "rans"
      ],
      [
        "Ġ",
        "ro"
      ],
      [
        "Ġ",
        "J"
      ],
      [
        "ul",
        "ation"
      ],
      [
        "vel",
        "op"
      ],
      [
        "o",
        "ver"
      ],
      [
        "iz",
        "ation"
      ],
      [
        "Ġ",
        "tim"
      ],
      [
        "ti",
        "v"
      ],
      [
        "er",
        "n"
      ],
      [
        "ac",
        "k"
      ],
      [
        "l",
        "ed"
      ],
      [
        "p",
        "ec"
      ],
      [
        "p",
        "on"
      ],
      [
        "Ġs",
        "ign"
      ],
      [
        "ĠR",
        "e"
      ],
      [
        "e",
        "en"
      ],
      [
        "u",
        "res"
      ],
      [
        "Ġdiffer",
        "ent"
      ],
      [
        "Ġp",
        "r"
      ],
      [
        "b",
        "er"
      ],
      [
        "l",
        "ish"
      ],
      [
        "ist",
        "or"
      ],
      [
        "Ġm",
        "an"
      ],
      [
        "u",
        "d"
      ],
      [
        "o",
        "od"
      ],
      [
        "ab",
        "ility"
      ],
      [
        "a",
        "ce"
      ],
      [
        "p",
        "or"
      ],
      [
        "Ġd",
        "et"
      ],
      [
        "t",
        "en"
      ],
      [
        "Ġs",
        "uc"
      ],
      [
        "v",
        "al"
      ],
      [
        "at",
        "ing"
      ],
      [
        "etw",
        "een"
      ],
      [
        "Ġw",
        "ork"
      ],
      [
        "Ġm",
        "o"
      ],
      [
        "p",
        "end"
      ],
      [
        "Ġb",
        "etween"
      ],
      [
        "ult",
        "ural"
      ],
      [
        "Ġfor",
        "m"
      ],
      [
        "ar",
        "k"
      ],
      [
        "d",
        "ing"
      ],
      [
        "ra",
        "ph"
      ],
      [
        "Qu",
        "ery"
      ],
      [
        "Ġd",
        "ec"
      ],
      [
        "a",
        "w"
      ],
      [
        "Ġcomple",
        "x"
      ],
      [
        "onom",
        "ic"
      ],
      [
        "g",
        "es"
      ],
      [
        ".",
        "<"
      ],
      [
        "Ġit",
        "s"
      ],
      [
        "Ġd",
        "es"
      ],
      [
        "Ġst",
        "ruct"
      ],
      [
        "in",
        "al"
      ],
      [
        "Ġde",
        "velop"
      ],
      [
        "l",
        "es"
      ],
      [
        "Ġex",
        "p"
      ],
      [
        "si",
        "tion"
      ],
      [
        "|",
        ">"
      ],
      [
        "end",
        "of"
      ],
      [
        "endof",
        "text"
      ],
      [
        "ĠA",
        "n"
      ],
      [
        "ro",
        "ss"
      ],
      [
        "form",
        "ation"
      ],
      [
        "olog",
        "y"
      ],
      [
        "Ġp",
        "at"
      ],
      [
        "istor",
        "ical"
      ],
      [
        "it",
        "e"
      ],
      [
        "ul",
        "ti"
      ],
      [
        "ew",
        "ork"
      ],
      [
        "d",
        "er"
      ],
      [
        "Ġ",
        "**"
      ],
      [
        "Ġw",
        "e"
      ],
      [
        "ram",
        "ework"
      ],
      [
        "u",
        "p"
      ],
      [
        "ate",
        "g"
      ],
      [
        "Ġ",
        "ec"
      ],
      [
        "Ġne",
        "ed"
      ],
      [
        ".<",
        "|"
      ],
      [
        "Ġf",
        "act"
      ],
      [
        "iti",
        "es"
      ],
      [
        "Ġm",
        "echanism"
      ],
      [
        "e",
        "f"
      ],
      [
        "og",
        "raph"
      ],
      [
        "Ġappro",
        "ach"
      ],
      [
        "Ġthe",
        "y"
      ],
      [
        "en",
        "s"
      ],
      [
        "Ġd",
        "i"
      ],
      [
        "Ġth",
        "ese"
      ],
      [
        "enti",
        "al"
      ],
      [
        "Ġv",
        "ari"
      ],
      [
        "si",
        "ve"
      ],
      [
        "Ġo",
        "ther"
      ],
      [
        "ur",
        "ing"
      ],
      [
        "ech",
        "n"
      ],
      [
        "ĠC",
        "om"
      ],
      [
        "ou",
        "nt"
      ],
      [
        "Ġw",
        "ould"
      ],
      [
        "Ġst",
        "r"
      ],
      [
        "Ġa",
        "g"
      ],
      [
        "Ġw",
        "ere"
      ],
      [
        "Ġ",
        "0"
      ],
      [
        "ar",
        "ch"
      ],
      [
        "p",
        "ar"
      ],
      [
        "Ġle",
        "g"
      ],
      [
        "re",
        "e"
      ],
      [
        "'",
        "t"
      ],
      [
        "is",
        "ion"
      ],
      [
        "Ġpat",
        "tern"
      ],
      [
        "Ġm",
        "a"
      ],
      [
        "Ġe",
        "le"
      ],
      [
        "ro",
        "l"
      ],
      [
        "Ġc",
        "ol"
      ],
      [
        "Ġwh",
        "en"
      ],
      [
        "Ġrequ",
        "ire"
      ],
      [
        "ath",
        "er"
      ],
      [
        "ment",
        "al"
      ],
      [
        "Ġt",
        "yp"
      ],
      [
        "a",
        "ti"
      ],
      [
        "Ġwh",
        "ile"
      ],
      [
        "Ġsu",
        "b"
      ],
      [
        "Ġre",
        "m"
      ],
      [
        "Ġh",
        "as"
      ],
      [
        "Ġl",
        "imit"
      ],
      [
        "i",
        "tical"
      ],
      [
        "ec",
        "tion"
      ],
      [
        "i",
        "ous"
      ],
      [
        "iz",
        "ed"
      ],
      [
        "Ġal",
        "l"
      ],
      [
        "as",
        "ed"
      ],
      [
        "ical",
        "ly"
      ],
      [
        "Ġc",
        "ent"
      ],
      [
        "ver",
        "s"
      ],
      [
        "on",
        "e"
      ],
      [
        "Ġconst",
        "rain"
      ],
      [
        "id",
        "e"
      ],
      [
        "Ġ2",
        "0"
      ],
      [
        "Ġs",
        "im"
      ],
      [
        "Ġo",
        "ut"
      ],
      [
        "Ġc",
        "ap"
      ],
      [
        "Ġde",
        "f"
      ],
      [
        "ow",
        "er"
      ],
      [
        "th",
        "od"
      ],
      [
        "Ġ",
        "ra"
      ],
      [
        "K",
        "ey"
      ],
      [
        "gh",
        "t"
      ],
      [
        "Ġpro",
        "vid"
      ],
      [
        "r",
        "ation"
      ],
      [
        "s",
        "o"
      ],
      [
        "er",
        "al"
      ],
      [
        "Ġpro",
        "cess"
      ],
      [
        "Ġsign",
        "ific"
      ],
      [
        "Ġs",
        "ome"
      ],
      [
        "enc",
        "y"
      ],
      [
        "Ġ",
        "6"
      ],
      [
        "e",
        "ver"
      ],
      [
        "c",
        "ed"
      ],
      [
        "Ġh",
        "igh"
      ],
      [
        "on",
        "d"
      ],
      [
        "ys",
        "ical"
      ],
      [
        "re",
        "at"
      ],
      [
        "os",
        "e"
      ],
      [
        "at",
        "a"
      ],
      [
        "Ġo",
        "b"
      ],
      [
        "is",
        "tic"
      ],
      [
        "vol",
        "ution"
      ],
      [
        "Ġeff",
        "ec"
      ],
      [
        "re",
        "n"
      ],
      [
        "an",
        "s"
      ],
      [
        "now",
        "led"
      ],
      [
        "ro",
        "w"
      ],
      [
        "k",
        "ing"
      ],
      [
        "Ġp",
        "ers"
      ],
      [
        "er",
        "g"
      ],
      [
        "a",
        "tic"
      ],
      [
        "r",
        "it"
      ],
      [
        "k",
        "s"
      ],
      [
        "ess",
        "ment"
      ],
      [
        "Ġs",
        "oc"
      ],
      [
        "Ġac",
        "c"
      ],
      [
        "Ġd",
        "o"
      ],
      [
        "ĠW",
        "h"
      ],
      [
        "yn",
        "thesis"
      ],
      [
        ")",
        "."
      ],
      [
        "Ġy",
        "ou"
      ],
      [
        "Ġp",
        "e"
      ],
      [
        "ic",
        "e"
      ],
      [
        "Ġpar",
        "tic"
      ],
      [
        "1",
        "9"
      ],
      [
        "ire",
        "ct"
      ],
      [
        "ab",
        "lish"
      ],
      [
        "l",
        "i"
      ],
      [
        "al",
        "ity"
      ],
      [
        "ti",
        "l"
      ],
      [
        "Ġp",
        "res"
      ],
      [
        "Ġinc",
        "lu"
      ],
      [
        "in",
        "c"
      ],
      [
        "Ġd",
        "em"
      ],
      [
        "tit",
        "ution"
      ],
      [
        "at",
        "ure"
      ],
      [
        "Ġm",
        "ain"
      ],
      [
        "Ġwh",
        "ere"
      ],
      [
        "Ġf",
        "ramework"
      ],
      [
        "v",
        "es"
      ],
      [
        "em",
        "por"
      ],
      [
        "i",
        "e"
      ],
      [
        "ro",
        "p"
      ],
      [
        "Ġc",
        "or"
      ],
      [
        "Ġsu",
        "pp"
      ],
      [
        "on",
        "s"
      ],
      [
        "ir",
        "st"
      ],
      [
        "Ġin",
        "s"
      ],
      [
        "o",
        "b"
      ],
      [
        "t",
        "ing"
      ],
      [
        "is",
        "e"
      ],
      [
        "Ġan",
        "alysis"
      ],
      [
        "Ġal",
        "so"
      ],
      [
        "v",
        "ed"
      ],
      [
        "di",
        "tional"
      ],
      [
        ")",
        ","
      ],
      [
        "ain",
        "s"
      ],
      [
        "ic",
        "i"
      ],
      [
        "Ġsignific",
        "ant"
      ],
      [
        "i",
        "b"
      ],
      [
        "Ġm",
        "ay"
      ],
      [
        "Ġrep",
        "res"
      ],
      [
        "est",
        "ablish"
      ],
      [
        "p",
        "tion"
      ],
      [
        "ow",
        "ever"
      ],
      [
        "Ġsystem",
        "s"
      ],
      [
        "ific",
        "ation"
      ],
      [
        "Ġlike",
        "ly"
      ],
      [
        "ar",
        "g"
      ],
      [
        "om",
        "es"
      ],
      [
        "ic",
        "s"
      ],
      [
        "u",
        "th"
      ],
      [
        "i",
        "or"
      ],
      [
        "Ġf",
        "un"
      ],
      [
        "Ġv",
        "al"
      ],
      [
        "ay",
        "s"
      ],
      [
        "Ġcon",
        "text"
      ],
      [
        "ĠS",
        "ynthesis"
      ],
      [
        "g",
        "an"
      ],
      [
        "aus",
        "e"
      ],
      [
        "enc",
        "es"
      ],
      [
        "ur",
        "re"
      ],
      [
        "id",
        "ence"
      ],
      [
        "I",
        "n"
      ],
      [
        "Ġd",
        "ata"
      ],
      [
        "ar",
        "ly"
      ],
      [
        "Ġp",
        "op"
      ],
      [
        "Ġp",
        "rac"
      ],
      [
        "an",
        "n"
      ],
      [
        "Ġh",
        "ad"
      ],
      [
        "Ġm",
        "ed"
      ],
      [
        "p",
        "re"
      ],
      [
        "si",
        "ble"
      ],
      [
        "Ġa",
        "m"
      ],
      [
        "Ġb",
        "oth"
      ],
      [
        "nowled",
        "ge"
      ],
      [
        "Ġcont",
        "rol"
      ],
      [
        "T",
        "h"
      ],
      [
        "Ġint",
        "o"
      ],
      [
        "Ġre",
        "f"
      ],
      [
        "Ġme",
        "thod"
      ],
      [
        "r",
        "on"
      ],
      [
        "over",
        "n"
      ],
      [
        "Ġt",
        "echn"
      ],
      [
        "Ġs",
        "ur"
      ],
      [
        "vid",
        "ence"
      ],
      [
        "it",
        "s"
      ],
      [
        "all",
        "en"
      ],
      [
        "Ġ",
        "ver"
      ],
      [
        "Ġsu",
        "g"
      ],
      [
        "ear",
        "s"
      ],
      [
        "Ġon",
        "e"
      ],
      [
        "ograph",
        "ic"
      ],
      [
        "m",
        "er"
      ],
      [
        "Ġo",
        "per"
      ],
      [
        "es",
        "tion"
      ],
      [
        "an",
        "ge"
      ],
      [
        "Ġfact",
        "ors"
      ],
      [
        "i",
        "od"
      ],
      [
        "Ġinf",
        "lu"
      ],
      [
        "n",
        "i"
      ],
      [
        "s",
        "er"
      ],
      [
        "vid",
        "ual"
      ],
      [
        "e",
        "ed"
      ],
      [
        "Ġrel",
        "ations"
      ],
      [
        "al",
        "s"
      ],
      [
        "i",
        "res"
      ],
      [
        "er",
        "tain"
      ],
      [
        "t",
        "ed"
      ],
      [
        "ti",
        "es"
      ],
      [
        "ble",
        "m"
      ],
      [
        "Ġm",
        "ulti"
      ],
      [
        "ĠP",
        "ro"
      ],
      [
        "Ġ",
        "establish"
      ],
      [
        "Ġpol",
        "itical"
      ],
      [
        "in",
        "d"
      ],
      [
        "Ġac",
        "ross"
      ],
      [
        "titution",
        "al"
      ],
      [
        "ual",
        "ly"
      ],
      [
        "ol",
        "d"
      ],
      [
        "Ġo",
        "p"
      ],
      [
        "Ġres",
        "pon"
      ],
      [
        "c",
        "c"
      ],
      [
        "Ġpro",
        "duc"
      ],
      [
        "Ġr",
        "ather"
      ],
      [
        "Ġd",
        "uring"
      ],
      [
        "Ġac",
        "t"
      ],
      [
        "Ġin",
        "si"
      ],
      [
        "Ġec",
        "onomic"
      ],
      [
        "Ġpro",
        "t"
      ],
      [
        "Ġn",
        "o"
      ],
      [
        "w",
        "o"
      ],
      [
        "Ġpattern",
        "s"
      ],
      [
        "Ġh",
        "ow"
      ],
      [
        "e",
        "g"
      ],
      [
        "i",
        "ed"
      ],
      [
        "ow",
        "n"
      ],
      [
        "Ġre",
        "t"
      ],
      [
        "ak",
        "ing"
      ],
      [
        "in",
        "ation"
      ],
      [
        "r",
        "u"
      ],
      [
        "Ġex",
        "pl"
      ],
      [
        "Ġl",
        "aw"
      ],
      [
        "r",
        "al"
      ],
      [
        "Ġm",
        "on"
      ],
      [
        "Ġconf",
        "idence"
      ],
      [
        "el",
        "f"
      ],
      [
        "Ġper",
        "iod"
      ],
      [
        "Ġm",
        "et"
      ],
      [
        "o",
        "v"
      ],
      [
        "Ġstr",
        "ateg"
      ],
      [
        "Ġm",
        "ark"
      ],
      [
        "le",
        "c"
      ],
      [
        "m",
        "ed"
      ],
      [
        "Ġ1",
        "8"
      ],
      [
        "ir",
        "on"
      ],
      [
        "Ġsuc",
        "h"
      ],
      [
        "e",
        "p"
      ],
      [
        "Ġcon",
        "c"
      ],
      [
        "ro",
        "ad"
      ],
      [
        "Ġin",
        "vol"
      ],
      [
        "Ġthe",
        "m"
      ],
      [
        "as",
        "on"
      ],
      [
        "Ġconstrain",
        "ts"
      ],
      [
        "Ġt",
        "erm"
      ],
      [
        "Ġm",
        "ost"
      ],
      [
        "Ġmechanism",
        "s"
      ],
      [
        "Ġstruct",
        "ure"
      ],
      [
        "Ġf",
        "und"
      ],
      [
        "w",
        "ard"
      ],
      [
        "u",
        "es"
      ],
      [
        "Ġtim",
        "e"
      ],
      [
        "s",
        "w"
      ],
      [
        "te",
        "g"
      ],
      [
        "f",
        "ul"
      ],
      [
        "Ġwh",
        "o"
      ],
      [
        "Ġt",
        "e"
      ],
      [
        "Ġrelations",
        "hip"
      ],
      [
        "h",
        "ysical"
      ],
      [
        "ou",
        "n"
      ],
      [
        "n",
        "ess"
      ],
      [
        "op",
        "le"
      ],
      [
        "Ġqu",
        "estion"
      ],
      [
        "Ġdevelop",
        "ment"
      ],
      [
        "Ġc",
        "ultural"
      ],
      [
        "Ġbe",
        "en"
      ],
      [
        "op",
        "h"
      ],
      [
        "ĠN",
        "o"
      ],
      [
        "Ġf",
        "irst"
      ],
      [
        "Ġex",
        "per"
      ],
      [
        "iz",
        "e"
      ],
      [
        "rou",
        "p"
      ],
      [
        "ar",
        "s"
      ],
      [
        "and",
        "s"
      ],
      [
        "Ġs",
        "ec"
      ],
      [
        "Ġat",
        "t"
      ],
      [
        "di",
        "tions"
      ],
      [
        "Ġp",
        "ot"
      ],
      [
        "urre",
        "nt"
      ],
      [
        "il",
        "d"
      ],
      [
        "le",
        "ar"
      ],
      [
        "ub",
        "lic"
      ],
      [
        "our",
        "ce"
      ],
      [
        "Ġinc",
        "re"
      ],
      [
        "as",
        "es"
      ],
      [
        "ĠE",
        "n"
      ],
      [
        "il",
        "it"
      ],
      [
        "an",
        "c"
      ],
      [
        "ou",
        "gh"
      ],
      [
        "ing",
        "s"
      ],
      [
        "Ġin",
        "di"
      ],
      [
        "m",
        "in"
      ],
      [
        "ĠH",
        "igh"
      ],
      [
        "o",
        "y"
      ],
      [
        "Ġsoc",
        "ial"
      ],
      [
        "Ġinsi",
        "ght"
      ],
      [
        "in",
        "t"
      ],
      [
        "Ġsy",
        "n"
      ],
      [
        "Ġreg",
        "ion"
      ],
      [
        "Ġch",
        "allen"
      ],
      [
        "Ġbe",
        "h"
      ],
      [
        "Ġad",
        "v"
      ],
      [
        "ag",
        "es"
      ],
      [
        "Ġg",
        "overn"
      ],
      [
        "o",
        "k"
      ],
      [
        "pec",
        "ific"
      ],
      [
        "Ġ",
        "~"
      ],
      [
        "sw",
        "er"
      ],
      [
        "st",
        "and"
      ],
      [
        "Ġa",
        "uth"
      ],
      [
        "Ġm",
        "em"
      ],
      [
        "Ġex",
        "t"
      ],
      [
        "it",
        "al"
      ],
      [
        "Ġd",
        "oc"
      ],
      [
        "ec",
        "k"
      ],
      [
        "Ġcont",
        "in"
      ],
      [
        "si",
        "der"
      ],
      [
        "Ġpro",
        "blem"
      ],
      [
        "Ġde",
        "pend"
      ],
      [
        "ĠCon",
        "text"
      ],
      [
        "Ġ",
        "Y"
      ],
      [
        "Ġh",
        "istorical"
      ],
      [
        "ro",
        "und"
      ],
      [
        "Ġd",
        "irect"
      ],
      [
        "Ġ",
        "id"
      ],
      [
        "Ġpol",
        "ic"
      ],
      [
        "Ġun",
        "c"
      ],
      [
        "ur",
        "y"
      ],
      [
        "Ġl",
        "oc"
      ],
      [
        "al",
        "th"
      ],
      [
        "Ġch",
        "ar"
      ],
      [
        "W",
        "h"
      ],
      [
        "ĠI",
        "nd"
      ],
      [
        "Ġp",
        "ower"
      ],
      [
        "Ġpartic",
        "ular"
      ],
      [
        "og",
        "ical"
      ],
      [
        "ti",
        "s"
      ],
      [
        "f",
        "ter"
      ],
      [
        "Ġst",
        "ate"
      ],
      [
        "ac",
        "ter"
      ],
      [
        "Ġmod",
        "el"
      ],
      [
        "j",
        "or"
      ],
      [
        "v",
        "iron"
      ],
      [
        "ce",
        "pt"
      ],
      [
        "Ġn",
        "ew"
      ],
      [
        "um",
        "an"
      ],
      [
        "Ġcomp",
        "ar"
      ],
      [
        "el",
        "ine"
      ],
      [
        "Ġp",
        "ress"
      ],
      [
        "Ġn",
        "um"
      ],
      [
        "ĠA",
        "l"
      ],
      [
        "Ġch",
        "ang"
      ],
      [
        "Ġindi",
        "vidual"
      ],
      [
        "Ġwith",
        "out"
      ],
      [
        "i",
        "ly"
      ],
      [
        "a",
        "x"
      ],
      [
        "at",
        "ory"
      ],
      [
        "Ġ",
        "7"
      ],
      [
        "Ġs",
        "erv"
      ],
      [
        "Ġst",
        "and"
      ],
      [
        "Ġpe",
        "ople"
      ],
      [
        "Ġf",
        "ound"
      ],
      [
        "Ġb",
        "l"
      ],
      [
        "i",
        "et"
      ],
      [
        "2",
        "0"
      ],
      [
        "fic",
        "ation"
      ],
      [
        "Ġwh",
        "at"
      ],
      [
        "Ġpro",
        "per"
      ],
      [
        "Ġd",
        "om"
      ],
      [
        "00",
        "0"
      ],
      [
        "Ġp",
        "ath"
      ],
      [
        "ĠU",
        "n"
      ],
      [
        "Ġdis",
        "c"
      ],
      [
        "Ġleg",
        "al"
      ],
      [
        "Ġdet",
        "ail"
      ],
      [
        "Ġdef",
        "in"
      ],
      [
        "ut",
        "e"
      ],
      [
        "in",
        "s"
      ],
      [
        "Ġme",
        "as"
      ],
      [
        "al",
        "e"
      ],
      [
        "ad",
        "e"
      ],
      [
        "res",
        "sion"
      ],
      [
        "u",
        "di"
      ],
      [
        "Ġin",
        "de"
      ],
      [
        "Ġb",
        "i"
      ],
      [
        "is",
        "ts"
      ],
      [
        "ment",
        "ation"
      ],
      [
        "Ġcomm",
        "un"
      ],
      [
        "an",
        "ts"
      ],
      [
        "e",
        "tic"
      ],
      [
        "Ġpr",
        "im"
      ],
      [
        "e",
        "ographic"
      ],
      [
        "Ġexper",
        "i"
      ],
      [
        "ĠI",
        "t"
      ],
      [
        "Ġmain",
        "tain"
      ],
      [
        "ĠH",
        "e"
      ],
      [
        "Ġo",
        "cc"
      ],
      [
        "ri",
        "tical"
      ],
      [
        "Ġv",
        "i"
      ],
      [
        "or",
        "ld"
      ],
      [
        "Ġid",
        "enti"
      ],
      [
        "Ġin",
        "teg"
      ],
      [
        "Ġg",
        "roup"
      ],
      [
        "Ġb",
        "road"
      ],
      [
        "ri",
        "e"
      ],
      [
        "Ġcon",
        "sider"
      ],
      [
        "ig",
        "ious"
      ],
      [
        "Ġe",
        "volution"
      ],
      [
        "Ġm",
        "at"
      ],
      [
        "Ġc",
        "ould"
      ],
      [
        "a",
        "pp"
      ],
      [
        "ilit",
        "ary"
      ],
      [
        "in",
        "es"
      ],
      [
        "ĠP",
        "ar"
      ],
      [
        "Ġpr",
        "inc"
      ],
      [
        "Ġwith",
        "in"
      ],
      [
        "Ġc",
        "aus"
      ],
      [
        "Ġe",
        "qu"
      ],
      [
        "Ġb",
        "re"
      ],
      [
        "Ġbeh",
        "av"
      ],
      [
        "pl",
        "es"
      ],
      [
        "Ġis",
        "s"
      ],
      [
        "s",
        "y"
      ],
      [
        "Ġrequ",
        "ires"
      ],
      [
        "Ġass",
        "essment"
      ],
      [
        "Ġfund",
        "a"
      ],
      [
        "Ġj",
        "ust"
      ],
      [
        "st",
        "r"
      ],
      [
        "Ġbec",
        "ause"
      ],
      [
        "et",
        "s"
      ],
      [
        "Ġa",
        "v"
      ],
      [
        "l",
        "ation"
      ],
      [
        "ĠAn",
        "alysis"
      ],
      [
        "en",
        "sion"
      ],
      [
        "Ġor",
        "gan"
      ],
      [
        "j",
        "ect"
      ],
      [
        "Ġc",
        "ount"
      ],
      [
        "Ġe",
        "vidence"
      ],
      [
        "Ġy",
        "our"
      ],
      [
        "Ġy",
        "ears"
      ],
      [
        "v",
        "ing"
      ],
      [
        "t",
        "ation"
      ],
      [
        "Ġunder",
        "stand"
      ],
      [
        "Ġdist",
        "in"
      ],
      [
        "Ġs",
        "ch"
      ],
      [
        "r",
        "im"
      ],
      [
        "os",
        "sible"
      ],
      [
        "a",
        "im"
      ],
      [
        "mer",
        "ic"
      ],
      [
        "j",
        "ec"
      ],
      [
        "ĠA",
        "r"
      ],
      [
        "Ġc",
        "ar"
      ],
      [
        "Ġon",
        "ly"
      ],
      [
        "el",
        "d"
      ],
      [
        "Ġt",
        "wo"
      ],
      [
        "ĠB",
        "ut"
      ],
      [
        "le",
        "ct"
      ],
      [
        "Ġdo",
        "es"
      ],
      [
        "our",
        "ces"
      ],
      [
        "ti",
        "al"
      ],
      [
        "rie",
        "val"
      ],
      [
        "w",
        "n"
      ],
      [
        "Ġf",
        "l"
      ],
      [
        "Ġs",
        "m"
      ],
      [
        "Ġpro",
        "g"
      ],
      [
        "Ġus",
        "ed"
      ],
      [
        "a",
        "u"
      ],
      [
        "og",
        "ni"
      ],
      [
        "empor",
        "al"
      ],
      [
        "Ġl",
        "ong"
      ],
      [
        "ar",
        "m"
      ],
      [
        "Ġle",
        "ad"
      ],
      [
        "ang",
        "u"
      ],
      [
        "are",
        "d"
      ],
      [
        "Ġsug",
        "ges"
      ],
      [
        "pl",
        "ic"
      ],
      [
        "Ġa",
        "ff"
      ],
      [
        "Ġf",
        "e"
      ],
      [
        "Ġgen",
        "er"
      ],
      [
        "Ġus",
        "e"
      ],
      [
        "Ġex",
        "ist"
      ],
      [
        "Th",
        "is"
      ],
      [
        "Ġma",
        "jor"
      ],
      [
        "n",
        "ing"
      ],
      [
        "now",
        "n"
      ],
      [
        "e",
        "an"
      ],
      [
        "c",
        "i"
      ],
      [
        "Ġsugges",
        "ts"
      ],
      [
        "at",
        "ural"
      ],
      [
        "C",
        "on"
      ],
      [
        "Ġm",
        "in"
      ],
      [
        "ĠA",
        "ss"
      ],
      [
        "Ġinflu",
        "ence"
      ],
      [
        "ĠE",
        "x"
      ],
      [
        "Ġs",
        "ol"
      ],
      [
        "ter",
        "s"
      ],
      [
        "ac",
        "y"
      ],
      [
        "Ġof",
        "ten"
      ],
      [
        "Ġrepres",
        "ent"
      ],
      [
        "Ġsupp",
        "ort"
      ],
      [
        "ir",
        "c"
      ],
      [
        "u",
        "rop"
      ],
      [
        "ff",
        "ici"
      ],
      [
        "Ġsy",
        "m"
      ],
      [
        "Ġen",
        "viron"
      ],
      [
        "Ġ",
        "ed"
      ],
      [
        "u",
        "g"
      ],
      [
        "erg",
        "y"
      ],
      [
        "Ġpre",
        "c"
      ],
      [
        "Ġco",
        "ast"
      ],
      [
        "Ġg",
        "row"
      ],
      [
        "Ġauth",
        "or"
      ],
      [
        "Ġpers",
        "on"
      ],
      [
        "Ġ",
        "if"
      ],
      [
        "Ġpar",
        "t"
      ],
      [
        "Ġinclu",
        "ding"
      ],
      [
        "Ġr",
        "is"
      ],
      [
        "Ġcon",
        "n"
      ],
      [
        "Ġse",
        "ver"
      ],
      [
        "v",
        "ent"
      ],
      [
        "Ġg",
        "ra"
      ],
      [
        "a",
        "tical"
      ],
      [
        "o",
        "sition"
      ],
      [
        "Ġmulti",
        "ple"
      ],
      [
        "i",
        "x"
      ],
      [
        "ĠC",
        "l"
      ],
      [
        "Ġsuc",
        "cess"
      ],
      [
        "if",
        "e"
      ],
      [
        "Ġth",
        "ere"
      ],
      [
        "Ġ",
        "er"
      ],
      [
        "Ġmod",
        "ern"
      ],
      [
        "Ġchang",
        "es"
      ],
      [
        "ra",
        "tive"
      ],
      [
        "se",
        "arch"
      ],
      [
        "b",
        "ility"
      ],
      [
        "r",
        "is"
      ],
      [
        "Ġle",
        "vel"
      ],
      [
        "Ġ",
        "8"
      ],
      [
        "oc",
        "us"
      ],
      [
        "Ġre",
        "search"
      ],
      [
        "Ġsyn",
        "thesis"
      ],
      [
        "is",
        "sion"
      ],
      [
        "l",
        "and"
      ],
      [
        "ag",
        "n"
      ],
      [
        "Ġc",
        "ost"
      ],
      [
        "it",
        "er"
      ],
      [
        "Ġe",
        "ach"
      ],
      [
        "Ġcon",
        "ditions"
      ],
      [
        "Ġp",
        "ri"
      ],
      [
        "Ġpolic",
        "y"
      ],
      [
        "Ġa",
        "fter"
      ],
      [
        "it",
        "ed"
      ],
      [
        "Ġs",
        "ame"
      ],
      [
        "Ġin",
        "tern"
      ],
      [
        "ĠA",
        "meric"
      ],
      [
        "i",
        "tion"
      ],
      [
        "Ġbe",
        "ing"
      ],
      [
        "Ġ",
        "ke"
      ],
      [
        "Ġf",
        "ol"
      ],
      [
        "Ġthe",
        "ory"
      ],
      [
        "ar",
        "ies"
      ],
      [
        "Ġc",
        "al"
      ],
      [
        "Ġt",
        "r"
      ],
      [
        "ol",
        "s"
      ],
      [
        "Ġcl",
        "aim"
      ],
      [
        "Ġs",
        "o"
      ],
      [
        "Ġpo",
        "sition"
      ],
      [
        "ra",
        "st"
      ],
      [
        "Ġ20",
        "1"
      ],
      [
        "Ġex",
        "am"
      ],
      [
        "ĠS",
        "h"
      ],
      [
        "Ġ",
        "*"
      ],
      [
        "Ġin",
        "formation"
      ],
      [
        "Ġin",
        "st"
      ],
      [
        "ve",
        "ment"
      ],
      [
        "Ġb",
        "as"
      ],
      [
        "Ġdes",
        "ign"
      ],
      [
        "Ġh",
        "er"
      ],
      [
        "Ġchar",
        "acter"
      ],
      [
        "Ġin",
        "d"
      ],
      [
        "w",
        "ay"
      ],
      [
        "Ġbehav",
        "ior"
      ],
      [
        "Ġper",
        "form"
      ],
      [
        "c",
        "lu"
      ],
      [
        "Ġsh",
        "if"
      ],
      [
        "Ġs",
        "et"
      ],
      [
        "c",
        "on"
      ],
      [
        "e",
        "x"
      ],
      [
        "Ġf",
        "am"
      ],
      [
        "Ġcor",
        "re"
      ],
      [
        "Ġf",
        "in"
      ],
      [
        "Ġad",
        "ap"
      ],
      [
        "Ġt",
        "er"
      ],
      [
        "a",
        "f"
      ],
      [
        "or",
        "ies"
      ],
      [
        "Ġestablish",
        "ed"
      ],
      [
        "P",
        "hysical"
      ],
      [
        "Ġw",
        "ell"
      ],
      [
        "ol",
        "ic"
      ],
      [
        "min",
        "ist"
      ],
      [
        "Ġstand",
        "ard"
      ],
      [
        "et",
        "ter"
      ],
      [
        "Ġre",
        "duc"
      ],
      [
        "i",
        "ve"
      ],
      [
        "Ġout",
        "c"
      ],
      [
        "Ġb",
        "u"
      ],
      [
        "Ġcontin",
        "u"
      ],
      [
        "i",
        "er"
      ],
      [
        "ĠN",
        "ot"
      ],
      [
        "di",
        "tion"
      ],
      [
        "tiv",
        "ity"
      ],
      [
        "Ġpre",
        "dic"
      ],
      [
        "Ġcoast",
        "al"
      ],
      [
        "Ġh",
        "uman"
      ],
      [
        "ap",
        "e"
      ],
      [
        "ruct",
        "ure"
      ],
      [
        "Ġm",
        "ight"
      ],
      [
        "i",
        "qu"
      ],
      [
        "ath",
        "em"
      ],
      [
        "Ġdoc",
        "u"
      ],
      [
        "Ġtyp",
        "ically"
      ],
      [
        "om",
        "p"
      ],
      [
        "Ġ",
        "{"
      ],
      [
        "s",
        "ing"
      ],
      [
        "Ġc",
        "ell"
      ],
      [
        "Ġsh",
        "ow"
      ],
      [
        "sy",
        "ch"
      ],
      [
        "Ġme",
        "an"
      ],
      [
        "Ġbroad",
        "er"
      ],
      [
        "si",
        "d"
      ],
      [
        "Ġ",
        "up"
      ],
      [
        "igh",
        "ts"
      ],
      [
        "Ġpro",
        "f"
      ],
      [
        "ĠR",
        "es"
      ],
      [
        "ĠE",
        "urop"
      ],
      [
        "Ġre",
        "al"
      ],
      [
        "Ġman",
        "y"
      ],
      [
        "Ġele",
        "ct"
      ],
      [
        "Ġeffec",
        "ts"
      ],
      [
        "Ġag",
        "ain"
      ],
      [
        "Ġb",
        "en"
      ],
      [
        "el",
        "i"
      ],
      [
        "Ġw",
        "ar"
      ],
      [
        "'",
        "re"
      ],
      [
        "Ġapp",
        "lic"
      ],
      [
        "yn",
        "am"
      ],
      [
        "Ġk",
        "nowledge"
      ],
      [
        "ĠH",
        "istorical"
      ],
      [
        "Ġ",
        "es"
      ],
      [
        "os",
        "s"
      ],
      [
        "b",
        "ers"
      ],
      [
        "om",
        "en"
      ],
      [
        "o",
        "x"
      ],
      [
        "rib",
        "ution"
      ],
      [
        "Ġparticular",
        "ly"
      ],
      [
        "Ġe",
        "ven"
      ],
      [
        "Ġo",
        "wn"
      ],
      [
        "Ġpop",
        "ulation"
      ],
      [
        "ect",
        "ed"
      ],
      [
        "m",
        "un"
      ],
      [
        "ate",
        "ly"
      ],
      [
        "Ġprovid",
        "e"
      ],
      [
        "Ġpress",
        "ure"
      ],
      [
        "Ġor",
        "ig"
      ],
      [
        "Ġrel",
        "igious"
      ],
      [
        "med",
        "i"
      ],
      [
        "Ġm",
        "ilitary"
      ],
      [
        "s",
        "erv"
      ],
      [
        "Ġspec",
        "ial"
      ],
      [
        "Ġch",
        "ange"
      ],
      [
        "Ġe",
        "arly"
      ],
      [
        "Ġ2",
        "00"
      ],
      [
        "Ġan",
        "y"
      ],
      [
        "an",
        "e"
      ],
      [
        "en",
        "sive"
      ],
      [
        "Ġimp",
        "ort"
      ],
      [
        "m",
        "e"
      ],
      [
        "Ġ",
        "end"
      ],
      [
        "Ġfol",
        "low"
      ],
      [
        "an",
        "tic"
      ],
      [
        "ĠI",
        "m"
      ],
      [
        "ĠP",
        "re"
      ],
      [
        "Ġinter",
        "pre"
      ],
      [
        "a",
        "ir"
      ],
      [
        "Ġar",
        "ch"
      ],
      [
        "Ġg",
        "l"
      ],
      [
        "ur",
        "n"
      ],
      [
        "ec",
        "ess"
      ],
      [
        "f",
        "or"
      ],
      [
        "n",
        "ot"
      ],
      [
        "ar",
        "ge"
      ],
      [
        "Ġal",
        "low"
      ],
      [
        "Ġo",
        "pp"
      ],
      [
        "ĠU",
        "ser"
      ],
      [
        "Ġtra",
        "ditional"
      ],
      [
        "Ġcomplex",
        "ity"
      ],
      [
        "Ġt",
        "reat"
      ],
      [
        "Ġfunda",
        "mental"
      ],
      [
        "Ġl",
        "angu"
      ],
      [
        "t",
        "al"
      ],
      [
        "in",
        "ed"
      ],
      [
        "re",
        "ad"
      ],
      [
        "ĠA",
        "d"
      ],
      [
        "en",
        "se"
      ],
      [
        "Ġl",
        "o"
      ],
      [
        "f",
        "ore"
      ],
      [
        "Ġd",
        "ue"
      ],
      [
        "H",
        "owever"
      ],
      [
        "in",
        "ce"
      ],
      [
        "an",
        "y"
      ],
      [
        "ĠS",
        "p"
      ],
      [
        "Ġcomm",
        "on"
      ],
      [
        "til",
        "l"
      ],
      [
        "Ġs",
        "er"
      ],
      [
        "ar",
        "t"
      ],
      [
        "Ġfun",
        "ction"
      ],
      [
        "c",
        "onomic"
      ],
      [
        "Ġcent",
        "ury"
      ],
      [
        "ruc",
        "tion"
      ],
      [
        "i",
        "eld"
      ],
      [
        "ti",
        "ce"
      ],
      [
        "a",
        "ke"
      ],
      [
        "Ġp",
        "ublic"
      ],
      [
        "Ġre",
        "st"
      ],
      [
        "an",
        "ces"
      ],
      [
        "Ġw",
        "ater"
      ],
      [
        "Ġret",
        "rieval"
      ],
      [
        "Ġdet",
        "erm"
      ],
      [
        "ĠK",
        "ey"
      ],
      [
        "Ġf",
        "ocus"
      ],
      [
        "ĠS",
        "pecific"
      ],
      [
        "Ġdes",
        "c"
      ],
      [
        "ent",
        "ly"
      ],
      [
        "Ġneed",
        "ed"
      ],
      [
        "Ġmark",
        "et"
      ],
      [
        "B",
        "ut"
      ],
      [
        "ver",
        "y"
      ],
      [
        "o",
        "id"
      ],
      [
        "Ġsm",
        "all"
      ],
      [
        "Ġc",
        "urrent"
      ],
      [
        "Ġp",
        "ost"
      ],
      [
        "Ġcre",
        "ates"
      ],
      [
        "Ġrespon",
        "se"
      ],
      [
        "Ġre",
        "ason"
      ],
      [
        "h",
        "er"
      ],
      [
        "Ġg",
        "ap"
      ],
      [
        "Ġad",
        "d"
      ],
      [
        "ur",
        "b"
      ],
      [
        "y",
        "le"
      ],
      [
        "age",
        "ment"
      ],
      [
        "Ġ",
        "enti"
      ],
      [
        "r",
        "id"
      ],
      [
        "Ġf",
        "ac"
      ],
      [
        "l",
        "ing"
      ],
      [
        "Ġmeas",
        "ure"
      ],
      [
        "Ġass",
        "um"
      ],
      [
        "ater",
        "ial"
      ],
      [
        "Ġd",
        "own"
      ],
      [
        "ati",
        "s"
      ],
      [
        ".",
        "\""
      ],
      [
        "Ġe",
        "l"
      ],
      [
        "Ġl",
        "ater"
      ],
      [
        "Ġc",
        "are"
      ],
      [
        "Ġf",
        "ail"
      ],
      [
        "Ġw",
        "ill"
      ],
      [
        "ment",
        "ed"
      ],
      [
        "ĠAss",
        "essment"
      ],
      [
        "Ġmethod",
        "s"
      ],
      [
        "Ġm",
        "us"
      ],
      [
        "am",
        "p"
      ],
      [
        "ĠI",
        "s"
      ],
      [
        "op",
        "e"
      ],
      [
        "ĠH",
        "owever"
      ],
      [
        "a",
        "h"
      ],
      [
        "ra",
        "g"
      ],
      [
        "Ġpot",
        "ential"
      ],
      [
        "Ġop",
        "tim"
      ],
      [
        "ĠCon",
        "st"
      ],
      [
        "ri",
        "al"
      ],
      [
        "Ġst",
        "udi"
      ],
      [
        "5",
        "0"
      ],
      [
        "Ġfun",
        "c"
      ],
      [
        "Ġcom",
        "b"
      ],
      [
        "y",
        "c"
      ],
      [
        "Ġn",
        "atural"
      ],
      [
        "Ġst",
        "at"
      ],
      [
        "Ġg",
        "u"
      ],
      [
        "Ġhe",
        "alth"
      ],
      [
        "Ġd",
        "id"
      ],
      [
        "iv",
        "al"
      ],
      [
        "w",
        "ays"
      ],
      [
        "Ġc",
        "irc"
      ],
      [
        "Ġ",
        "u"
      ],
      [
        "Ġrem",
        "ain"
      ],
      [
        "ĠIn",
        "formation"
      ],
      [
        "ar",
        "ri"
      ],
      [
        "etw",
        "ork"
      ],
      [
        "w",
        "h"
      ],
      [
        "Ġn",
        "ecess"
      ],
      [
        "Ġl",
        "ess"
      ],
      [
        "o",
        "h"
      ],
      [
        "x",
        "im"
      ],
      [
        "ven",
        "ess"
      ],
      [
        "Ġen",
        "g"
      ],
      [
        "Ġspec",
        "if"
      ],
      [
        "e",
        "ti"
      ],
      [
        "p",
        "ort"
      ],
      [
        "Ġin",
        "iti"
      ],
      [
        "Ġsc",
        "i"
      ],
      [
        "ĠS",
        "e"
      ],
      [
        "in",
        "k"
      ],
      [
        "ing",
        "le"
      ],
      [
        "i",
        "um"
      ],
      [
        "Ġc",
        "all"
      ],
      [
        "athem",
        "atical"
      ],
      [
        "u",
        "tions"
      ],
      [
        "Ġimp",
        "act"
      ],
      [
        "Ġris",
        "k"
      ],
      [
        "is",
        "on"
      ],
      [
        "el",
        "p"
      ],
      [
        "oc",
        "k"
      ],
      [
        "Ġdec",
        "ision"
      ],
      [
        "g",
        "th"
      ],
      [
        "enti",
        "ally"
      ],
      [
        "Ġagain",
        "st"
      ],
      [
        "Ġch",
        "eck"
      ],
      [
        "Ġth",
        "ough"
      ],
      [
        "ĠCh",
        "in"
      ],
      [
        "ffici",
        "ent"
      ],
      [
        "Ġc",
        "ity"
      ],
      [
        "Ġav",
        "ail"
      ],
      [
        "ri",
        "es"
      ],
      [
        "Ġspec",
        "ies"
      ],
      [
        "ul",
        "atory"
      ],
      [
        "t",
        "le"
      ],
      [
        "le",
        "ction"
      ],
      [
        "ut",
        "ure"
      ],
      [
        "Ġbec",
        "ame"
      ],
      [
        "Ġcl",
        "ass"
      ],
      [
        "Ġeff",
        "ici"
      ],
      [
        "Ġunderstand",
        "ing"
      ],
      [
        "1",
        "8"
      ],
      [
        "ertain",
        "ty"
      ],
      [
        "Ġind",
        "ust"
      ],
      [
        "ic",
        "k"
      ],
      [
        "ari",
        "ly"
      ],
      [
        "Ġcal",
        "c"
      ],
      [
        "Ġgen",
        "eral"
      ],
      [
        "ĠE",
        "m"
      ],
      [
        "Ġse",
        "e"
      ],
      [
        "Ġn",
        "on"
      ],
      [
        "Ġst",
        "ud"
      ],
      [
        "er",
        "ification"
      ],
      [
        "ra",
        "ct"
      ],
      [
        "Ġin",
        "v"
      ],
      [
        "Ġlimit",
        "ed"
      ],
      [
        "od",
        "y"
      ],
      [
        "ĠD",
        "e"
      ],
      [
        "Ġgovern",
        "ment"
      ],
      [
        "ou",
        "th"
      ],
      [
        "Ġl",
        "ife"
      ],
      [
        "il",
        "os"
      ],
      [
        "Ġk",
        "nown"
      ],
      [
        "il",
        "ities"
      ],
      [
        "re",
        "d"
      ],
      [
        "Ġw",
        "orld"
      ],
      [
        "ter",
        "m"
      ],
      [
        "Ġen",
        "ergy"
      ],
      [
        "n",
        "er"
      ],
      [
        "ul",
        "ations"
      ],
      [
        "ĠTh",
        "ese"
      ],
      [
        "er",
        "ing"
      ],
      [
        "tive",
        "ly"
      ],
      [
        "Ġrepres",
        "ents"
      ],
      [
        "ers",
        "hip"
      ],
      [
        "t",
        "o"
      ],
      [
        "il",
        "ar"
      ],
      [
        "Ġapproach",
        "es"
      ],
      [
        "es",
        "sion"
      ],
      [
        "os",
        "ed"
      ],
      [
        "ilos",
        "oph"
      ],
      [
        "Ġ",
        "9"
      ],
      [
        "tiv",
        "es"
      ],
      [
        "it",
        "u"
      ],
      [
        "g",
        "en"
      ],
      [
        "pl",
        "oy"
      ],
      [
        "Ġke",
        "y"
      ],
      [
        "Ġt",
        "em"
      ],
      [
        "ĠA",
        "c"
      ],
      [
        "S",
        "t"
      ],
      [
        "Ġh",
        "im"
      ],
      [
        "ĠL",
        "imit"
      ],
      [
        "m",
        "an"
      ],
      [
        "Ġins",
        "titutional"
      ],
      [
        "Ġc",
        "ase"
      ],
      [
        "om",
        "m"
      ],
      [
        "Ġse",
        "par"
      ],
      [
        "Ġauthor",
        "ity"
      ],
      [
        "Ġdem",
        "on"
      ],
      [
        "ĠEn",
        "g"
      ],
      [
        "Ġf",
        "re"
      ],
      [
        "Ġb",
        "ack"
      ],
      [
        "Ġp",
        "ur"
      ],
      [
        "Ġgrow",
        "th"
      ],
      [
        "Ġt",
        "re"
      ],
      [
        "pl",
        "ay"
      ],
      [
        "er",
        "c"
      ],
      [
        "uc",
        "h"
      ],
      [
        "Ġact",
        "ually"
      ],
      [
        "Ġad",
        "minist"
      ],
      [
        "ut",
        "es"
      ],
      [
        "Ġl",
        "iter"
      ],
      [
        "Ġrec",
        "ord"
      ],
      [
        "ti",
        "veness"
      ],
      [
        "Ġrem",
        "ains"
      ],
      [
        "Ġcomple",
        "te"
      ],
      [
        "fer",
        "ence"
      ],
      [
        "ro",
        "duc"
      ],
      [
        "Ġh",
        "elp"
      ],
      [
        "in",
        "ess"
      ],
      [
        "Ġg",
        "e"
      ],
      [
        "Ġv",
        "ol"
      ],
      [
        "Ġsh",
        "ould"
      ],
      [
        "Ġv",
        "is"
      ],
      [
        "Ġob",
        "serv"
      ],
      [
        "Ġoutc",
        "omes"
      ],
      [
        "ab",
        "or"
      ],
      [
        "Ġ",
        "z"
      ],
      [
        "Ġb",
        "ound"
      ],
      [
        "el",
        "s"
      ],
      [
        "ĠE",
        "conomic"
      ],
      [
        "empor",
        "ary"
      ],
      [
        "Ġ1",
        "0"
      ],
      [
        "Ġb",
        "o"
      ],
      [
        "ist",
        "ance"
      ],
      [
        "Ġs",
        "till"
      ],
      [
        "tic",
        "s"
      ],
      [
        "Ġm",
        "aterial"
      ],
      [
        "Ġth",
        "en"
      ],
      [
        "Ġimp",
        "ro"
      ],
      [
        ")",
        ":"
      ],
      [
        "c",
        "ent"
      ],
      [
        "Ġt",
        "ran"
      ],
      [
        "Ġadv",
        "ant"
      ],
      [
        "pend",
        "ent"
      ],
      [
        "Ġrequire",
        "d"
      ],
      [
        "n",
        "e"
      ],
      [
        "or",
        "al"
      ],
      [
        "Ġp",
        "sych"
      ],
      [
        "Ġinteg",
        "ration"
      ],
      [
        "ch",
        "ie"
      ],
      [
        "Ġd",
        "ri"
      ],
      [
        "r",
        "ing"
      ],
      [
        "od",
        "ern"
      ],
      [
        "Ġcons",
        "ist"
      ],
      [
        "Ġb",
        "ased"
      ],
      [
        "orm",
        "al"
      ],
      [
        "a",
        "z"
      ],
      [
        "Ġch",
        "o"
      ],
      [
        "ist",
        "ory"
      ],
      [
        "1",
        "0"
      ],
      [
        "as",
        "si"
      ],
      [
        "F",
        "inal"
      ],
      [
        "Ġ",
        "ide"
      ],
      [
        "Ġac",
        "cess"
      ],
      [
        "ven",
        "tion"
      ],
      [
        "b",
        "ased"
      ],
      [
        "Ġa",
        "ut"
      ],
      [
        "Ġl",
        "arge"
      ],
      [
        "rast",
        "ructure"
      ],
      [
        "m",
        "s"
      ],
      [
        "Ġ",
        "Z"
      ],
      [
        "em",
        "antic"
      ],
      [
        "ĠP",
        "ol"
      ],
      [
        "a",
        "e"
      ],
      [
        "Ġstudi",
        "es"
      ],
      [
        "ic",
        "es"
      ],
      [
        "Ġh",
        "y"
      ],
      [
        "Ġloc",
        "al"
      ],
      [
        "Ġf",
        "il"
      ],
      [
        "l",
        "ine"
      ],
      [
        "Ġa",
        "chie"
      ],
      [
        "Ġd",
        "ynam"
      ],
      [
        "Ġlimit",
        "ations"
      ],
      [
        "Ġn",
        "etwork"
      ],
      [
        "Ġch",
        "ild"
      ],
      [
        "Ġdefin",
        "i"
      ],
      [
        "ak",
        "es"
      ],
      [
        "d",
        "is"
      ],
      [
        "ce",
        "p"
      ],
      [
        "Ġt",
        "ax"
      ],
      [
        "Ġbe",
        "fore"
      ],
      [
        "Ġperform",
        "ance"
      ],
      [
        "Ġspecif",
        "ically"
      ],
      [
        "i",
        "ven"
      ],
      [
        "Ġ",
        "ess"
      ],
      [
        "es",
        "ts"
      ],
      [
        "Ġc",
        "our"
      ],
      [
        "Ġprac",
        "tical"
      ],
      [
        "Ġcan",
        "not"
      ],
      [
        "Ġbe",
        "y"
      ],
      [
        "Ġbey",
        "ond"
      ],
      [
        "clu",
        "sion"
      ],
      [
        "Ġcap",
        "ac"
      ],
      [
        "ĠAmeric",
        "an"
      ],
      [
        "Ġdistin",
        "ction"
      ],
      [
        "v",
        "i"
      ],
      [
        "Ġab",
        "s"
      ],
      [
        "Ġben",
        "ef"
      ],
      [
        "Ġm",
        "ust"
      ],
      [
        "l",
        "am"
      ],
      [
        "Ġenti",
        "re"
      ],
      [
        "ab",
        "les"
      ],
      [
        "r",
        "or"
      ],
      [
        "Ġf",
        "low"
      ],
      [
        "Ġbre",
        "ak"
      ],
      [
        "A",
        "n"
      ],
      [
        "Ġthe",
        "ore"
      ],
      [
        "i",
        "ples"
      ],
      [
        "ed",
        "eral"
      ],
      [
        "or",
        "ts"
      ],
      [
        "Ġed",
        "uc"
      ],
      [
        "or",
        "th"
      ],
      [
        "Ġt",
        "est"
      ],
      [
        "si",
        "an"
      ],
      [
        "se",
        "qu"
      ],
      [
        "Ġin",
        "dic"
      ],
      [
        "Ġb",
        "etter"
      ],
      [
        "Ġ",
        "Query"
      ],
      [
        "Ġdom",
        "in"
      ],
      [
        "Ġr",
        "ights"
      ],
      [
        "Ġdemon",
        "str"
      ],
      [
        "fic",
        "ial"
      ],
      [
        "Ġs",
        "ources"
      ],
      [
        "ill",
        "ion"
      ],
      [
        "ĠM",
        "ed"
      ],
      [
        "Ġlangu",
        "age"
      ],
      [
        "Ġm",
        "ade"
      ],
      [
        "Ġchallen",
        "ges"
      ],
      [
        "Ġterm",
        "s"
      ],
      [
        "Ġtra",
        "de"
      ],
      [
        "Ġn",
        "ature"
      ],
      [
        "ing",
        "u"
      ],
      [
        "medi",
        "ate"
      ],
      [
        "Ġst",
        "ates"
      ],
      [
        "Ġdetail",
        "ed"
      ],
      [
        "in",
        "ical"
      ],
      [
        "an",
        "sion"
      ],
      [
        "as",
        "c"
      ],
      [
        "ĠP",
        "h"
      ],
      [
        "oc",
        "i"
      ],
      [
        "Ġwork",
        "s"
      ],
      [
        "Ġim",
        "ple"
      ],
      [
        "Ġad",
        "op"
      ],
      [
        "Ġp",
        "ossible"
      ],
      [
        "Ġan",
        "swer"
      ],
      [
        "Ġd",
        "if"
      ],
      [
        "Ġe",
        "ar"
      ],
      [
        "om",
        "ain"
      ],
      [
        "Ġsever",
        "al"
      ],
      [
        "Ġro",
        "le"
      ],
      [
        "Ġ",
        "ent"
      ],
      [
        "ĠO",
        "r"
      ],
      [
        "Ġ",
        "$"
      ],
      [
        "Ġ",
        "&"
      ],
      [
        "Ġs",
        "k"
      ],
      [
        "ĠD",
        "ec"
      ],
      [
        "ul",
        "l"
      ],
      [
        "f",
        "t"
      ],
      [
        "ver",
        "se"
      ],
      [
        "d",
        "u"
      ],
      [
        "Ġw",
        "he"
      ],
      [
        "Ġde",
        "p"
      ],
      [
        "6",
        "0"
      ],
      [
        "Ġbec",
        "ome"
      ],
      [
        "Ġm",
        "is"
      ],
      [
        "ph",
        "as"
      ],
      [
        "Ġproduc",
        "tion"
      ],
      [
        "Ġprim",
        "ary"
      ],
      [
        "Ġprinc",
        "iples"
      ],
      [
        "ren",
        "ch"
      ],
      [
        "Ġocc",
        "ur"
      ],
      [
        "th",
        "ers"
      ],
      [
        "Ġsim",
        "ilar"
      ],
      [
        "Ġvari",
        "ous"
      ],
      [
        "et",
        "y"
      ],
      [
        "s",
        "c"
      ],
      [
        "ĠU",
        "S"
      ],
      [
        "Ġph",
        "ilosoph"
      ],
      [
        "Ġh",
        "istory"
      ],
      [
        "Ġconc",
        "ern"
      ],
      [
        "ĠF",
        "ramework"
      ],
      [
        "Ġ19",
        "9"
      ],
      [
        "Ġneed",
        "s"
      ],
      [
        "Ġtreat",
        "ment"
      ],
      [
        "'",
        "m"
      ],
      [
        "Ġun",
        "s"
      ],
      [
        "u",
        "sion"
      ],
      [
        "Ġhigh",
        "er"
      ],
      [
        "Ġs",
        "ingle"
      ],
      [
        "Ġm",
        "en"
      ],
      [
        "Ġcont",
        "rib"
      ],
      [
        "si",
        "bility"
      ],
      [
        "Ġcre",
        "ate"
      ],
      [
        "vers",
        "ity"
      ],
      [
        "tic",
        "es"
      ],
      [
        "le",
        "x"
      ],
      [
        "Ġph",
        "ysical"
      ],
      [
        "ĠConst",
        "rain"
      ],
      [
        "l",
        "l"
      ],
      [
        "Ġpo",
        "si"
      ],
      [
        "at",
        "s"
      ],
      [
        "o",
        "ther"
      ],
      [
        "Ġbec",
        "omes"
      ],
      [
        "ĠS",
        "y"
      ],
      [
        "Ġter",
        "rit"
      ],
      [
        "Ġconstrain",
        "t"
      ],
      [
        "tern",
        "al"
      ],
      [
        "f",
        "ied"
      ],
      [
        "ĠN",
        "ew"
      ],
      [
        "Ġem",
        "erg"
      ],
      [
        "Ġ{",
        "\\"
      ],
      [
        "Ġstruct",
        "ures"
      ],
      [
        "ĠEurop",
        "ean"
      ],
      [
        "Ġcapac",
        "ity"
      ],
      [
        "Ġth",
        "ree"
      ],
      [
        "Ġsim",
        "ple"
      ],
      [
        "Ġs",
        "l"
      ],
      [
        "Ġn",
        "ame"
      ],
      [
        "Ġpres",
        "erv"
      ],
      [
        "Ġa",
        "round"
      ],
      [
        "Ġr",
        "ates"
      ],
      [
        "ou",
        "se"
      ],
      [
        "Ġexp",
        "ansion"
      ],
      [
        "Ġimport",
        "ant"
      ],
      [
        "Ġh",
        "and"
      ],
      [
        "Ġc",
        "ases"
      ],
      [
        "ogni",
        "tion"
      ],
      [
        "iv",
        "il"
      ],
      [
        "ĠV",
        "erification"
      ],
      [
        "Ġsignificant",
        "ly"
      ],
      [
        "al",
        "y"
      ],
      [
        "Ġf",
        "ore"
      ],
      [
        "?",
        "\""
      ],
      [
        "l",
        "ess"
      ],
      [
        "Ġele",
        "ments"
      ],
      [
        "om",
        "an"
      ],
      [
        "Ġd",
        "iv"
      ],
      [
        "Ġof",
        "f"
      ],
      [
        "ane",
        "ous"
      ],
      [
        "Ġnum",
        "ber"
      ],
      [
        "Ġth",
        "ose"
      ],
      [
        "Ġw",
        "rit"
      ],
      [
        "em",
        "ic"
      ],
      [
        "Ġun",
        "i"
      ],
      [
        "Ġex",
        "act"
      ],
      [
        "ĠRe",
        "g"
      ],
      [
        "Ġ1",
        "7"
      ],
      [
        "it",
        "ect"
      ],
      [
        "Ġmean",
        "ing"
      ],
      [
        "s",
        "p"
      ],
      [
        "Ġl",
        "and"
      ],
      [
        "ĠN",
        "eed"
      ],
      [
        "vers",
        "al"
      ],
      [
        "ĠM",
        "ulti"
      ],
      [
        "ĠG",
        "erm"
      ],
      [
        "Ġfam",
        "ily"
      ],
      [
        "Ġtyp",
        "e"
      ],
      [
        "N",
        "B"
      ],
      [
        "ther",
        "n"
      ],
      [
        "p",
        "ut"
      ],
      [
        "Ġb",
        "el"
      ],
      [
        "Ġbu",
        "il"
      ],
      [
        "om",
        "s"
      ],
      [
        "Ġcomp",
        "on"
      ],
      [
        "Ġprog",
        "ram"
      ],
      [
        "ac",
        "tion"
      ],
      [
        "C",
        "ore"
      ],
      [
        "ĠC",
        "ultural"
      ],
      [
        "Ġadd",
        "ress"
      ],
      [
        "Ġdepend",
        "s"
      ],
      [
        "Ġgroup",
        "s"
      ],
      [
        "er",
        "ation"
      ],
      [
        "Ġmed",
        "ical"
      ],
      [
        "Ġstat",
        "us"
      ],
      [
        "Ġdiffer",
        "ences"
      ],
      [
        "Ġrequire",
        "ments"
      ],
      [
        "ĠT",
        "im"
      ],
      [
        "Ġstruct",
        "ural"
      ],
      [
        "Ġare",
        "a"
      ],
      [
        "Ġc",
        "ur"
      ],
      [
        "ec",
        "ts"
      ],
      [
        "Ġto",
        "tal"
      ],
      [
        "ch",
        "es"
      ],
      [
        "Ġpres",
        "ent"
      ],
      [
        "Ġval",
        "id"
      ],
      [
        "Ġmem",
        "ory"
      ],
      [
        "Ġlevel",
        "s"
      ],
      [
        "Ġsec",
        "ond"
      ],
      [
        "at",
        "or"
      ],
      [
        "iffer",
        "ent"
      ],
      [
        "on",
        "ial"
      ],
      [
        "Ġshif",
        "t"
      ],
      [
        "as",
        "k"
      ],
      [
        "y",
        "l"
      ],
      [
        "ĠM",
        "echanism"
      ],
      [
        "u",
        "le"
      ],
      [
        "g",
        "o"
      ],
      [
        "x",
        "ts"
      ],
      [
        "end",
        "ed"
      ],
      [
        "ĠCon",
        "t"
      ],
      [
        "oc",
        "ial"
      ],
      [
        "Ġt",
        "arg"
      ],
      [
        "tim",
        "e"
      ],
      [
        "eg",
        "al"
      ],
      [
        "Ġb",
        "al"
      ],
      [
        "ol",
        "ution"
      ],
      [
        "Ġma",
        "ke"
      ],
      [
        "urb",
        "an"
      ],
      [
        "om",
        "ple"
      ],
      [
        "dic",
        "tion"
      ],
      [
        "iz",
        "ing"
      ],
      [
        "Ġcre",
        "ated"
      ],
      [
        "Ġc",
        "ult"
      ],
      [
        "al",
        "es"
      ],
      [
        "Ġeffici",
        "ency"
      ],
      [
        "f",
        "ric"
      ],
      [
        "Ġm",
        "echan"
      ],
      [
        "Ġan",
        "ti"
      ],
      [
        "Ġf",
        "ig"
      ],
      [
        "m",
        "ission"
      ],
      [
        "Ġp",
        "ric"
      ],
      [
        "ĠG",
        "en"
      ],
      [
        "pon",
        "se"
      ],
      [
        "Ġpo",
        "int"
      ],
      [
        "Ġiss",
        "ue"
      ],
      [
        "Ġiss",
        "ues"
      ],
      [
        "Ġprocess",
        "es"
      ],
      [
        "t",
        "r"
      ],
      [
        "Ġl",
        "og"
      ],
      [
        "ur",
        "ity"
      ],
      [
        "ĠF",
        "or"
      ],
      [
        "ĠG",
        "eographic"
      ],
      [
        "Ġres",
        "ult"
      ],
      [
        "ĠConstrain",
        "ts"
      ],
      [
        "onom",
        "y"
      ],
      [
        "ĠWh",
        "ile"
      ],
      [
        "Ġ1",
        "5"
      ],
      [
        "plic",
        "ations"
      ],
      [
        "Ġ19",
        "7"
      ],
      [
        "rac",
        "y"
      ],
      [
        "Ġman",
        "agement"
      ],
      [
        "Ġc",
        "yc"
      ],
      [
        "tis",
        "h"
      ],
      [
        "Ġsur",
        "v"
      ],
      [
        "an",
        "ced"
      ],
      [
        "Ġg",
        "o"
      ],
      [
        "om",
        "et"
      ],
      [
        "Ġprinc",
        "ip"
      ],
      [
        "or",
        "n"
      ],
      [
        "Ġd",
        "am"
      ],
      [
        "t",
        "on"
      ],
      [
        "es",
        "tern"
      ],
      [
        "f",
        "act"
      ],
      [
        "Ġ",
        "ti"
      ],
      [
        "Ġus",
        "ing"
      ],
      [
        "Ġl",
        "ine"
      ],
      [
        "if",
        "ied"
      ],
      [
        "Ġval",
        "ue"
      ],
      [
        "us",
        "iness"
      ],
      [
        "Ġme",
        "ans"
      ],
      [
        "Ġcall",
        "ed"
      ],
      [
        "ĠW",
        "ar"
      ],
      [
        "Ġt",
        "ension"
      ],
      [
        "Ġinvol",
        "ves"
      ],
      [
        "Ġm",
        "aking"
      ],
      [
        "Ġn",
        "ar"
      ],
      [
        "Ġf",
        "ield"
      ],
      [
        "re",
        "g"
      ],
      [
        "ĠL",
        "ogical"
      ],
      [
        "Ġavail",
        "able"
      ],
      [
        "Ġdist",
        "ribution"
      ],
      [
        "Ġstrateg",
        "y"
      ],
      [
        "Ġm",
        "y"
      ],
      [
        "Ġde",
        "ath"
      ],
      [
        "Ġre",
        "le"
      ],
      [
        "h",
        "ensive"
      ],
      [
        "i",
        "ble"
      ],
      [
        "Ġt",
        "ri"
      ],
      [
        "th",
        "e"
      ],
      [
        "Ġdesc",
        "rib"
      ],
      [
        "or",
        "ing"
      ],
      [
        "oun",
        "ter"
      ],
      [
        "Ġn",
        "ational"
      ],
      [
        "Ġf",
        "uture"
      ],
      [
        "p",
        "ite"
      ],
      [
        "Ġinf",
        "rastructure"
      ],
      [
        "ob",
        "al"
      ],
      [
        "Ġ19",
        "8"
      ],
      [
        "Ġto",
        "ward"
      ],
      [
        "Ġcons",
        "um"
      ],
      [
        "Ġ",
        "'"
      ],
      [
        "Ġ",
        "enc"
      ],
      [
        "ce",
        "ption"
      ],
      [
        "b",
        "e"
      ],
      [
        "Ġdis",
        "e"
      ],
      [
        "ir",
        "d"
      ],
      [
        "Ġde",
        "b"
      ],
      [
        "lec",
        "ts"
      ],
      [
        "Ġsu",
        "per"
      ],
      [
        "Ġsub",
        "st"
      ],
      [
        "Ġstrateg",
        "ic"
      ],
      [
        "Ġreg",
        "ard"
      ],
      [
        "ĠC",
        "ore"
      ],
      [
        "ĠL",
        "i"
      ],
      [
        "Ġconf",
        "lic"
      ],
      [
        "g",
        "est"
      ],
      [
        "Ġm",
        "athematical"
      ],
      [
        "ic",
        "t"
      ],
      [
        "ĠSt",
        "r"
      ],
      [
        "Ġr",
        "ul"
      ],
      [
        "Ġpl",
        "ay"
      ],
      [
        "Ġtran",
        "sition"
      ],
      [
        "U",
        "ser"
      ],
      [
        "n",
        "ov"
      ],
      [
        "Ġwhe",
        "ther"
      ],
      [
        "N",
        "A"
      ],
      [
        "Ġtechn",
        "iqu"
      ],
      [
        "Ġsp",
        "ace"
      ],
      [
        "Ġcomp",
        "re"
      ],
      [
        "ĠS",
        "c"
      ],
      [
        "tern",
        "ative"
      ],
      [
        "Ġc",
        "ritical"
      ],
      [
        "f",
        "ace"
      ],
      [
        "Ġl",
        "ow"
      ],
      [
        "h",
        "old"
      ],
      [
        "ĠS",
        "ome"
      ],
      [
        "st",
        "yle"
      ],
      [
        "ĠL",
        "e"
      ],
      [
        "p",
        "ro"
      ],
      [
        "g",
        "er"
      ],
      [
        "Ġcon",
        "ver"
      ],
      [
        "Ġcon",
        "cept"
      ],
      [
        "anc",
        "ial"
      ],
      [
        "Ġdetail",
        "s"
      ],
      [
        "Ġintern",
        "ational"
      ],
      [
        "iv",
        "ed"
      ],
      [
        "Ġprac",
        "tices"
      ],
      [
        "ĠCom",
        "ple"
      ],
      [
        "ogni",
        "tive"
      ],
      [
        "ul",
        "ts"
      ],
      [
        "ver",
        "age"
      ],
      [
        "in",
        "ts"
      ],
      [
        "Ġo",
        "thers"
      ],
      [
        "Ġcomp",
        "eti"
      ],
      [
        "iet",
        "y"
      ],
      [
        "s",
        "h"
      ],
      [
        "Ġeffec",
        "tiveness"
      ],
      [
        "ly",
        "ing"
      ],
      [
        "Ġare",
        "as"
      ],
      [
        "C",
        "h"
      ],
      [
        "Ġdoes",
        "n"
      ],
      [
        "h",
        "ib"
      ],
      [
        "Ġa",
        "ge"
      ],
      [
        "Ġl",
        "arg"
      ],
      [
        "ut",
        "ed"
      ],
      [
        "Ġf",
        "ood"
      ],
      [
        "an",
        "k"
      ],
      [
        "a",
        "i"
      ],
      [
        "Ġs",
        "ize"
      ],
      [
        "em",
        "s"
      ],
      [
        "Ġtheore",
        "tical"
      ],
      [
        "ri",
        "tish"
      ],
      [
        "Ġrelationship",
        "s"
      ],
      [
        "ĠA",
        "fric"
      ],
      [
        "Ġ1",
        "6"
      ],
      [
        "Ġits",
        "elf"
      ],
      [
        "im",
        "al"
      ],
      [
        "Ġcompar",
        "ative"
      ],
      [
        "Ġchallen",
        "ge"
      ],
      [
        "Ġr",
        "ate"
      ],
      [
        "ra",
        "tic"
      ],
      [
        "Ġtyp",
        "es"
      ],
      [
        "il",
        "i"
      ],
      [
        "Ġexperi",
        "ence"
      ],
      [
        "3",
        "0"
      ],
      [
        "Ġcent",
        "ral"
      ],
      [
        "ult",
        "aneous"
      ],
      [
        "ĠWh",
        "en"
      ],
      [
        "ic",
        "ation"
      ],
      [
        "jec",
        "ts"
      ],
      [
        "Ġ",
        "X"
      ],
      [
        "Ġpro",
        "p"
      ],
      [
        "ĠT",
        "echn"
      ],
      [
        "Ġcompar",
        "ison"
      ],
      [
        "Ġc",
        "lear"
      ],
      [
        "Ġem",
        "phas"
      ],
      [
        "as",
        "h"
      ],
      [
        "Ġ",
        "Q"
      ],
      [
        "Ġmo",
        "vement"
      ],
      [
        "re",
        "am"
      ],
      [
        "are",
        "nt"
      ],
      [
        "Ġconf",
        "ir"
      ],
      [
        "if",
        "y"
      ],
      [
        "Ġstr",
        "ong"
      ],
      [
        "k",
        "nowledge"
      ],
      [
        "Ġframework",
        "s"
      ],
      [
        "ĠP",
        "er"
      ],
      [
        "Ġdistin",
        "ct"
      ],
      [
        "re",
        "me"
      ],
      [
        "Ġs",
        "itu"
      ],
      [
        "ti",
        "an"
      ],
      [
        "Ġref",
        "lects"
      ],
      [
        "si",
        "a"
      ],
      [
        "Ġle",
        "ar"
      ],
      [
        "Ġdynam",
        "ics"
      ],
      [
        "Ġg",
        "re"
      ],
      [
        "ix",
        "ed"
      ],
      [
        "Ġb",
        "ody"
      ],
      [
        "v",
        "ents"
      ],
      [
        "Ġvi",
        "ol"
      ],
      [
        "et",
        "er"
      ],
      [
        "Ġd",
        "on"
      ],
      [
        "Ġdirect",
        "ly"
      ],
      [
        "on",
        "es"
      ],
      [
        "Ġcol",
        "l"
      ],
      [
        "enti",
        "fic"
      ],
      [
        "g",
        "u"
      ],
      [
        "ĠC",
        "an"
      ],
      [
        "d",
        "ed"
      ],
      [
        "og",
        "n"
      ],
      [
        "Ġg",
        "ood"
      ],
      [
        "ĠEng",
        "lish"
      ],
      [
        "Ġor",
        "der"
      ],
      [
        "Ġsc",
        "ope"
      ],
      [
        "Ġregion",
        "s"
      ],
      [
        "Ġg",
        "iven"
      ],
      [
        "ain",
        "ed"
      ],
      [
        "Ġprincip",
        "le"
      ],
      [
        "Ġm",
        "uch"
      ],
      [
        "Ġsch",
        "o"
      ],
      [
        "for",
        "ce"
      ],
      [
        "Ġcompre",
        "hensive"
      ],
      [
        "ig",
        "ital"
      ],
      [
        "Ġrec",
        "ognition"
      ],
      [
        "Ġrel",
        "i"
      ],
      [
        "Ġco",
        "ord"
      ],
      [
        "Ġc",
        "ertain"
      ],
      [
        "ram",
        "e"
      ],
      [
        "p",
        "id"
      ],
      [
        "Ġvi",
        "ew"
      ],
      [
        "Ġfre",
        "qu"
      ],
      [
        "in",
        "ary"
      ],
      [
        "Ġpro",
        "ced"
      ],
      [
        "at",
        "ors"
      ],
      [
        "Ġe",
        "th"
      ],
      [
        "Ġeff",
        "ect"
      ],
      [
        "Ġs",
        "af"
      ],
      [
        "Ġcount",
        "ries"
      ],
      [
        "Ġver",
        "ification"
      ],
      [
        "ĠUn",
        "ited"
      ],
      [
        "Ġtem",
        "per"
      ],
      [
        "Ġprac",
        "tice"
      ],
      [
        "it",
        "ual"
      ],
      [
        "Ġsu",
        "st"
      ],
      [
        "enc",
        "ed"
      ],
      [
        "Ġe",
        "very"
      ],
      [
        "li",
        "ke"
      ],
      [
        "Ġam",
        "ong"
      ],
      [
        "Ġadminist",
        "rative"
      ],
      [
        "Ġ",
        "Qu"
      ],
      [
        "en",
        "ing"
      ],
      [
        "ann",
        "ing"
      ],
      [
        "Ġinde",
        "ed"
      ],
      [
        "y",
        "m"
      ],
      [
        "`",
        "`"
      ],
      [
        "Ġ",
        "/"
      ],
      [
        "Ġspecial",
        "ized"
      ],
      [
        "Ġp",
        "ass"
      ],
      [
        "f",
        "y"
      ],
      [
        "ĠT",
        "ra"
      ],
      [
        "Ġprovid",
        "es"
      ],
      [
        "Ġprec",
        "ise"
      ],
      [
        "Ġstud",
        "y"
      ],
      [
        "Ġexam",
        "ple"
      ],
      [
        "Ġt",
        "emporal"
      ],
      [
        "Ġoper",
        "ations"
      ],
      [
        "ith",
        "er"
      ],
      [
        "l",
        "o"
      ],
      [
        "Ġpri",
        "v"
      ],
      [
        "1",
        "5"
      ],
      [
        "Ġ",
        "urban"
      ],
      [
        "Ġreason",
        "ing"
      ],
      [
        "dis",
        "play"
      ],
      [
        "over",
        "y"
      ],
      [
        "Ġreg",
        "ulatory"
      ],
      [
        "Ġtechn",
        "ical"
      ],
      [
        "Ġinterpre",
        "tation"
      ],
      [
        "ec",
        "tions"
      ],
      [
        "Ġsug",
        "gest"
      ],
      [
        "ĠP",
        "l"
      ],
      [
        "Ġact",
        "ual"
      ],
      [
        "du",
        "ce"
      ],
      [
        "Ġth",
        "er"
      ],
      [
        "Ġcre",
        "ating"
      ],
      [
        "Ġc",
        "ateg"
      ],
      [
        "ĠThe",
        "y"
      ],
      [
        "Ġapplic",
        "ations"
      ],
      [
        "display",
        "style"
      ],
      [
        "og",
        "en"
      ],
      [
        "r",
        "up"
      ],
      [
        "Ġprocess",
        "ing"
      ],
      [
        "Ġproblem",
        "s"
      ],
      [
        "d",
        "ay"
      ],
      [
        "Ġse",
        "qu"
      ],
      [
        "par",
        "t"
      ],
      [
        "Ġarch",
        "itect"
      ],
      [
        "ent",
        "al"
      ],
      [
        "p",
        "ir"
      ],
      [
        "Ġuns",
        "ure"
      ],
      [
        "Ġsym",
        "b"
      ],
      [
        "ci",
        "ent"
      ],
      [
        "ĠH",
        "is"
      ],
      [
        "Ġac",
        "tiv"
      ],
      [
        "R",
        "e"
      ],
      [
        "read",
        "y"
      ],
      [
        "ĠB",
        "ritish"
      ],
      [
        "av",
        "ing"
      ],
      [
        "v",
        "ision"
      ],
      [
        "g",
        "ing"
      ],
      [
        "Ġv",
        "ary"
      ],
      [
        "Ġqu",
        "an"
      ],
      [
        "ĠSt",
        "ates"
      ],
      [
        "ession",
        "al"
      ],
      [
        "Ġl",
        "oss"
      ],
      [
        "im",
        "ension"
      ],
      [
        "it",
        "es"
      ],
      [
        "Ġpot",
        "entially"
      ],
      [
        "ĠF",
        "rench"
      ],
      [
        "Ġy",
        "ear"
      ],
      [
        "Ġclaim",
        "s"
      ],
      [
        "Ġdif",
        "fic"
      ],
      [
        "Ġa",
        "ir"
      ],
      [
        "ĠA",
        "t"
      ],
      [
        "Ġpers",
        "ist"
      ],
      [
        "Ġgener",
        "ally"
      ],
      [
        "w",
        "e"
      ],
      [
        "ĠP",
        "hysical"
      ],
      [
        "Ġres",
        "istance"
      ],
      [
        "Ġprot",
        "ection"
      ],
      [
        "Ġem",
        "ploy"
      ],
      [
        "an",
        "ish"
      ],
      [
        "id",
        "d"
      ],
      [
        "Ġass",
        "oci"
      ],
      [
        "ac",
        "es"
      ],
      [
        "Ġmaintain",
        "ing"
      ],
      [
        "Ġw",
        "omen"
      ],
      [
        "et",
        "ing"
      ],
      [
        "Ġsystem",
        "atic"
      ],
      [
        "Ġunc",
        "ertainty"
      ],
      [
        "d",
        "own"
      ],
      [
        "ĠC",
        "ol"
      ],
      [
        "ari",
        "an"
      ],
      [
        "Ġcommun",
        "ity"
      ],
      [
        "Ġre",
        "fer"
      ],
      [
        "ĠA",
        "m"
      ],
      [
        "Ġtrans",
        "formation"
      ],
      [
        "ib",
        "ility"
      ],
      [
        "Ġfor",
        "ces"
      ],
      [
        "Ġrel",
        "ative"
      ],
      [
        "i",
        "o"
      ],
      [
        "ap",
        "s"
      ],
      [
        "le",
        "g"
      ],
      [
        "as",
        "ing"
      ],
      [
        "app",
        "ing"
      ],
      [
        "Ġsc",
        "en"
      ],
      [
        "Ġcap",
        "ital"
      ],
      [
        "is",
        "s"
      ],
      [
        "Ġpartic",
        "ip"
      ],
      [
        "Ġsch",
        "ol"
      ],
      [
        "Ġcl",
        "assi"
      ],
      [
        "Ġdiffer",
        "ence"
      ],
      [
        "im",
        "ate"
      ],
      [
        "pl",
        "ace"
      ],
      [
        "ĠPar",
        "tial"
      ],
      [
        "r",
        "and"
      ],
      [
        "al",
        "ing"
      ],
      [
        "z",
        "e"
      ],
      [
        "Ġm",
        "illion"
      ],
      [
        "ĠL",
        "egal"
      ],
      [
        "Ġcost",
        "s"
      ],
      [
        "Ġfunc",
        "tions"
      ],
      [
        "on",
        "al"
      ],
      [
        "Ġin",
        "her"
      ],
      [
        "Ġform",
        "ation"
      ],
      [
        "ab",
        "ly"
      ],
      [
        "un",
        "g"
      ],
      [
        "Ġrec",
        "ogn"
      ],
      [
        "Ġpri",
        "or"
      ],
      [
        "Ġproper",
        "ties"
      ],
      [
        "Ġconc",
        "ent"
      ],
      [
        "Ġorig",
        "inal"
      ],
      [
        "Ġn",
        "am"
      ],
      [
        "Ġperson",
        "al"
      ],
      [
        "ĠCon",
        "s"
      ],
      [
        "in",
        "ing"
      ],
      [
        "er",
        "ed"
      ],
      [
        "Ġb",
        "usiness"
      ],
      [
        "Ġsim",
        "ultaneous"
      ],
      [
        "Ġs",
        "ource"
      ],
      [
        "Ġpre",
        "ced"
      ],
      [
        "g",
        "n"
      ],
      [
        "ur",
        "is"
      ],
      [
        "Ġproper",
        "ty"
      ],
      [
        "ve",
        "ments"
      ],
      [
        "ĠI",
        "I"
      ],
      [
        "rac",
        "tical"
      ],
      [
        "istic",
        "s"
      ],
      [
        "ren",
        "gth"
      ],
      [
        "val",
        "u"
      ],
      [
        "o",
        "tional"
      ],
      [
        "Ġre",
        "ach"
      ],
      [
        "Ġac",
        "cept"
      ],
      [
        "Ġinclu",
        "de"
      ],
      [
        "Ġs",
        "elf"
      ],
      [
        "Ġunc",
        "lear"
      ],
      [
        "Ġal",
        "ign"
      ],
      [
        "pec",
        "ial"
      ],
      [
        "Ġdes",
        "pite"
      ],
      [
        "Ġdise",
        "ase"
      ],
      [
        "Ġpro",
        "b"
      ],
      [
        "Ġex",
        "ists"
      ],
      [
        "ograph",
        "y"
      ],
      [
        "si",
        "de"
      ],
      [
        "ĠSt",
        "ate"
      ],
      [
        "Ġr",
        "ange"
      ],
      [
        "d",
        "om"
      ],
      [
        "Ġwh",
        "y"
      ],
      [
        "ag",
        "ing"
      ],
      [
        "Ġn",
        "av"
      ],
      [
        "Ġr",
        "ight"
      ],
      [
        "Ġcorre",
        "ct"
      ],
      [
        "Ġcompon",
        "ents"
      ],
      [
        "Ġ",
        "ve"
      ],
      [
        "p",
        "o"
      ],
      [
        "Ġal",
        "ready"
      ],
      [
        "Ġregion",
        "al"
      ],
      [
        "at",
        "ch"
      ],
      [
        "ĠR",
        "us"
      ],
      [
        "ud",
        "d"
      ],
      [
        "Ġs",
        "ince"
      ],
      [
        "Ġb",
        "rain"
      ],
      [
        "\"",
        "."
      ],
      [
        "s",
        "pecific"
      ],
      [
        "Ġf",
        "rag"
      ],
      [
        "Ġsh",
        "ort"
      ],
      [
        "ar",
        "di"
      ],
      [
        "ĠA",
        "ct"
      ],
      [
        "ti",
        "g"
      ],
      [
        "ĠM",
        "e"
      ],
      [
        "Ġtim",
        "ing"
      ],
      [
        "ier",
        "arch"
      ],
      [
        "4",
        "0"
      ],
      [
        "Ġinv",
        "est"
      ],
      [
        "G",
        "eographic"
      ],
      [
        "en",
        "si"
      ],
      [
        "ens",
        "ity"
      ],
      [
        "Ġc",
        "ause"
      ],
      [
        "Ġc",
        "ross"
      ],
      [
        "Ġstrateg",
        "ies"
      ],
      [
        "ann",
        "ot"
      ],
      [
        "Ġmodel",
        "s"
      ],
      [
        "m",
        "et"
      ],
      [
        "Ġqu",
        "ality"
      ],
      [
        "Ġidenti",
        "ty"
      ],
      [
        "Ġaff",
        "ect"
      ],
      [
        "ĠB",
        "C"
      ],
      [
        "ĠR",
        "ec"
      ],
      [
        "Ġh",
        "yp"
      ],
      [
        "ĠW",
        "e"
      ],
      [
        "Ġin",
        "nov"
      ],
      [
        "ĠM",
        "odern"
      ],
      [
        "B",
        "re"
      ],
      [
        "Ġpro",
        "m"
      ],
      [
        "ĠD",
        "ifferent"
      ],
      [
        "Ġbl",
        "ood"
      ],
      [
        "ĠCom",
        "p"
      ],
      [
        "th",
        "ing"
      ],
      [
        "ti",
        "fication"
      ],
      [
        "em",
        "ical"
      ],
      [
        "Ġph",
        "ys"
      ],
      [
        "id",
        "es"
      ],
      [
        "Ġte",
        "xt"
      ],
      [
        "ab",
        "ilities"
      ],
      [
        "Ġdevelop",
        "ed"
      ],
      [
        "p",
        "ire"
      ],
      [
        "m",
        "it"
      ],
      [
        "ĠIn",
        "s"
      ],
      [
        "Ġar",
        "ti"
      ],
      [
        "Ġdocu",
        "mented"
      ],
      [
        "Ġprim",
        "arily"
      ],
      [
        "omple",
        "te"
      ],
      [
        "ap",
        "an"
      ],
      [
        "agn",
        "os"
      ],
      [
        "Ġenviron",
        "mental"
      ],
      [
        "ĠT",
        "emporal"
      ],
      [
        "F",
        "or"
      ],
      [
        "Ġapp",
        "ear"
      ],
      [
        "Ġse",
        "x"
      ],
      [
        "Ġl",
        "ack"
      ],
      [
        "Ġapp",
        "ears"
      ],
      [
        "Ġtra",
        "dition"
      ],
      [
        "Ġc",
        "ruc"
      ],
      [
        "Ġp",
        "ati"
      ],
      [
        "Ġadap",
        "tation"
      ],
      [
        "s",
        "es"
      ],
      [
        "Ġb",
        "ase"
      ],
      [
        "T",
        "im"
      ],
      [
        "um",
        "e"
      ],
      [
        "ic",
        "ro"
      ],
      [
        "Ġm",
        "ass"
      ],
      [
        "ĠCom",
        "par"
      ],
      [
        "is",
        "ed"
      ],
      [
        "os",
        "ph"
      ],
      [
        "oc",
        "ratic"
      ],
      [
        "al",
        "le"
      ],
      [
        "Ġindividual",
        "s"
      ],
      [
        "d",
        "es"
      ],
      [
        "ast",
        "er"
      ],
      [
        "o",
        "ff"
      ],
      [
        "ang",
        "ulation"
      ],
      [
        "i",
        "tim"
      ],
      [
        "od",
        "e"
      ],
      [
        "ou",
        "ght"
      ],
      [
        "Ġsp",
        "e"
      ],
      [
        "te",
        "xts"
      ],
      [
        "ĠChin",
        "ese"
      ],
      [
        "volution",
        "ary"
      ],
      [
        "Ġcont",
        "ra"
      ],
      [
        "ac",
        "ts"
      ],
      [
        "ian",
        "s"
      ],
      [
        "r",
        "ated"
      ],
      [
        "Ġt",
        "rain"
      ],
      [
        "ĠN",
        "e"
      ],
      [
        "Ġ",
        ">"
      ],
      [
        "Ġfact",
        "or"
      ],
      [
        "Ġconn",
        "ection"
      ],
      [
        "ĠStr",
        "ateg"
      ],
      [
        "Ġc",
        "amp"
      ],
      [
        "os",
        "ure"
      ],
      [
        "Ġcons",
        "titutional"
      ],
      [
        "Ġun",
        "til"
      ],
      [
        "ot",
        "e"
      ],
      [
        "iz",
        "es"
      ],
      [
        "Ġtim",
        "eline"
      ],
      [
        "Ġpop",
        "ulations"
      ],
      [
        "Ġentire",
        "ly"
      ],
      [
        "ĠB",
        "oth"
      ],
      [
        "Ġ20",
        "2"
      ],
      [
        "w",
        "are"
      ],
      [
        "Ġsuccess",
        "ful"
      ],
      [
        "ur",
        "ation"
      ],
      [
        "Ġl",
        "ight"
      ],
      [
        "Ġadop",
        "tion"
      ],
      [
        "Ġcon",
        "texts"
      ],
      [
        "b",
        "ig"
      ],
      [
        "Ġincre",
        "ased"
      ],
      [
        "ĠAn",
        "swer"
      ],
      [
        "Ġprec",
        "ision"
      ],
      [
        "u",
        "fficient"
      ],
      [
        "1",
        "7"
      ],
      [
        "1",
        "2"
      ],
      [
        "em",
        "ber"
      ],
      [
        "Ġp",
        "ain"
      ],
      [
        "Ġre",
        "ce"
      ],
      [
        "Ġnum",
        "bers"
      ],
      [
        "Ġcruc",
        "ial"
      ],
      [
        "b",
        "o"
      ],
      [
        "Ġpro",
        "te"
      ],
      [
        "ĠContext",
        "ual"
      ],
      [
        "Ġal",
        "ong"
      ],
      [
        "at",
        "ures"
      ],
      [
        "Ġe",
        "vol"
      ],
      [
        "ac",
        "tions"
      ],
      [
        "Ġn",
        "ormal"
      ],
      [
        "Ġver",
        "y"
      ],
      [
        "Ġconsider",
        "ed"
      ],
      [
        "ce",
        "ed"
      ],
      [
        "c",
        "ape"
      ],
      [
        "in",
        "king"
      ],
      [
        "Ġtrans",
        "port"
      ],
      [
        "Ġdam",
        "age"
      ],
      [
        "Ġc",
        "ri"
      ],
      [
        "ĠRe",
        "qu"
      ],
      [
        "Ġatt",
        "em"
      ],
      [
        "Ġcaus",
        "al"
      ],
      [
        "Ġex",
        "ten"
      ],
      [
        "Ġref",
        "lect"
      ],
      [
        "ĠE",
        "vidence"
      ],
      [
        "en",
        "ed"
      ],
      [
        "ad",
        "emic"
      ],
      [
        "re",
        "f"
      ],
      [
        "Ġne",
        "g"
      ],
      [
        "Ġmet",
        "ric"
      ],
      [
        "m",
        "on"
      ],
      [
        "Ġo",
        "ld"
      ],
      [
        "Ġe",
        "vent"
      ],
      [
        "ĠLimit",
        "ed"
      ],
      [
        "ra",
        "b"
      ],
      [
        "Ġv",
        "ir"
      ],
      [
        "ĠW",
        "estern"
      ],
      [
        "ĠD",
        "irect"
      ],
      [
        "Ġprovid",
        "ed"
      ],
      [
        "Ġof",
        "ficial"
      ],
      [
        "Ġcomp",
        "ared"
      ],
      [
        "Wh",
        "y"
      ],
      [
        "Ġreduc",
        "ed"
      ],
      [
        "end",
        "s"
      ],
      [
        "Ġincre",
        "ase"
      ],
      [
        "om",
        "b"
      ],
      [
        "Ġimple",
        "mentation"
      ],
      [
        "Ġc",
        "ognitive"
      ],
      [
        "ĠS",
        "outh"
      ],
      [
        "us",
        "h"
      ],
      [
        "Ġ",
        ","
      ],
      [
        "Ġim",
        "mun"
      ],
      [
        "Ġpo",
        "ints"
      ],
      [
        "d",
        "ual"
      ],
      [
        "re",
        "ct"
      ],
      [
        "Ġcell",
        "s"
      ],
      [
        "Ġl",
        "ay"
      ],
      [
        "ĠRes",
        "ponse"
      ],
      [
        "Ġapplic",
        "ation"
      ],
      [
        "Ġim",
        "plications"
      ],
      [
        "Ġab",
        "ility"
      ],
      [
        "rac",
        "tion"
      ],
      [
        "Ġst",
        "rength"
      ],
      [
        "}",
        "}"
      ],
      [
        "ĠGerm",
        "an"
      ],
      [
        "Ġassum",
        "es"
      ],
      [
        "Ġsp",
        "ir"
      ],
      [
        "Ġinter",
        "est"
      ],
      [
        "Ġintern",
        "al"
      ],
      [
        "Ġd",
        "est"
      ],
      [
        "st",
        "s"
      ],
      [
        "Ġc",
        "ivil"
      ],
      [
        "Ġres",
        "ources"
      ],
      [
        "-",
        "-"
      ],
      [
        "Ġs",
        "he"
      ],
      [
        "Ġ",
        ")"
      ],
      [
        "Ġst",
        "ability"
      ],
      [
        "Ġre",
        "ality"
      ],
      [
        "Ġcult",
        "ure"
      ],
      [
        "iti",
        "z"
      ],
      [
        "Ġacc",
        "ount"
      ],
      [
        "Ġf",
        "ederal"
      ],
      [
        "Ġsubst",
        "an"
      ],
      [
        "Ġf",
        "av"
      ],
      [
        "ect",
        "or"
      ],
      [
        "e",
        "ad"
      ],
      [
        "Ġ",
        "?"
      ],
      [
        "Ġra",
        "di"
      ],
      [
        "as",
        "sive"
      ],
      [
        "ĠT",
        "rans"
      ],
      [
        "Ġc",
        "ore"
      ],
      [
        "Ġl",
        "ower"
      ],
      [
        "Ġst",
        "ar"
      ],
      [
        "Ġst",
        "atis"
      ],
      [
        "om",
        "atic"
      ],
      [
        "Ġeduc",
        "ation"
      ],
      [
        "Ġeffec",
        "tive"
      ],
      [
        "Ġbuil",
        "ding"
      ],
      [
        "Ġform",
        "s"
      ],
      [
        "Ġevolution",
        "ary"
      ],
      [
        "Ġcomm",
        "it"
      ],
      [
        "Ġfin",
        "ancial"
      ],
      [
        "omp",
        "osition"
      ],
      [
        "Ġchild",
        "ren"
      ],
      [
        "ir",
        "ing"
      ],
      [
        "al",
        "se"
      ],
      [
        "us",
        "e"
      ],
      [
        "Ġ1",
        "2"
      ],
      [
        "ur",
        "ch"
      ],
      [
        "vi",
        "ew"
      ],
      [
        "Ġh",
        "app"
      ],
      [
        "ment",
        "ary"
      ],
      [
        "or",
        "ial"
      ],
      [
        "Ġenviron",
        "ment"
      ],
      [
        "Ġess",
        "ential"
      ],
      [
        "Ġp",
        "ure"
      ],
      [
        "ĠD",
        "omain"
      ],
      [
        "ĠS",
        "ocial"
      ],
      [
        "res",
        "sive"
      ],
      [
        "pec",
        "tive"
      ],
      [
        "end",
        "ing"
      ],
      [
        "Ġindust",
        "rial"
      ],
      [
        "Ġbenef",
        "its"
      ],
      [
        "ord",
        "er"
      ],
      [
        "Ġem",
        "b"
      ],
      [
        "Ġprot",
        "oc"
      ],
      [
        "erc",
        "ial"
      ],
      [
        "ĠRe",
        "p"
      ],
      [
        "Ġj",
        "us"
      ],
      [
        "Ġcomm",
        "ercial"
      ],
      [
        "ov",
        "iet"
      ],
      [
        "Ġear",
        "li"
      ],
      [
        "Ġre",
        "ad"
      ],
      [
        "Ġpath",
        "ways"
      ],
      [
        "Ġh",
        "ierarch"
      ],
      [
        "ad",
        "es"
      ],
      [
        "Ġph",
        "en"
      ],
      [
        "g",
        "et"
      ],
      [
        "Ġdiffic",
        "ult"
      ],
      [
        "Ġtra",
        "ditions"
      ],
      [
        "Ġtechniqu",
        "es"
      ],
      [
        "ĠB",
        "e"
      ],
      [
        "ĠD",
        "em"
      ],
      [
        "Ġ",
        ":"
      ],
      [
        "ĠU",
        "ni"
      ],
      [
        "a",
        "id"
      ],
      [
        "c",
        "l"
      ],
      [
        "Ġdem",
        "and"
      ],
      [
        "i",
        "ent"
      ],
      [
        "Ġinde",
        "pend"
      ],
      [
        "udd",
        "h"
      ],
      [
        "Ġtrans",
        "form"
      ],
      [
        "Ġorgan",
        "iz"
      ],
      [
        "Ġgl",
        "obal"
      ],
      [
        "Ġbal",
        "ance"
      ],
      [
        "ord",
        "ing"
      ],
      [
        "os",
        "es"
      ],
      [
        "ur",
        "g"
      ],
      [
        "Ġsec",
        "urity"
      ],
      [
        "Ġnetwork",
        "s"
      ],
      [
        "Ġl",
        "ands"
      ],
      [
        "qu",
        "e"
      ],
      [
        "end",
        "er"
      ],
      [
        "Ġres",
        "ults"
      ],
      [
        "Ġpl",
        "ace"
[...]
